e _
d _
t h
t _
s _
a n
, _
i n
e r
o u
th e_
o _
y _
an d_
. _
o n
e n
o r
I _
e d_
t o_
in g
f _
a r
l l
a _
h a
w a
er _
h i
o f_
ing _
r e
o w
a t_
s t
h e_
” _
o m
in _
y ou
wa s_
en _
i t
ll _
s e
c h
on _
i t_
l e
a t
or _
g h
s a
b e
th at_
k _
w i
o o
e s
l d_
r i
v e_
m _
you _
i s_
’ t_
l i
h e
u t_
. ”_
l e_
th e
u s
a c
t i
u p
an _
n _
; _
th _
hi s_
er e_
e ,_
a l
ou t_
o t_
r o
ch _
a s
m e_
r _
d i
f or_
w h
e v
ou ld_
u n
d ,_
e s_
s i
a s_
a b
wi th_
ow _
’ s_
s h
l y_
s ,_
m a
u r
m y_
ha d_
r a
w hi
b ut_
l a
a ll_
n ’t_
k e_
gh t_
c om
e ._
i d_
’ _
ou n
g _
w e_
on e_
y ,_
ha ve_
om _
b e_
d e
s o_
o l
ha t_
l o
up _
c k
? ”_
f or
v er
c a
t ,_
ow n_
i r
o th
a g
m i
whi ch_
d e_
sa id_
t er
b o
n ot_
e t_
d o
d n’t_
d ._
s t_
f e
t e
en t_
k n
s ._
f r
a in
s om
w e
o p
s e_
c e_
n o_
re a
p o
sa y
hi m_
the y_
s he_
m e
p e
us t_
b y_
t r
t er_
g ot_
w ould_
w or
t o
T h
p _
th is_
h er_
s u
l _
fr om_
en t
T he_
“ W
th ere_
ar _
, ”_
n i
u t
ev er_
f i
d own_
c on
I t_
n e
w hat_
wh en_
ll ,_
m or
er ,_
q u
se e_
o f
it t
oun d_
es ,_
an d
H e_
c ould_
ab out_
ou l
t ._
ou gh
l oo
you r_
i s
d a
c k_
o v
al _
hi m
i f_
k e
t a
d y_
y ._
d o_
ou r_
wa y_
be en_
: _
ar e_
p l
s o
w _
at i
m o
ver y_
A n
se l
e x
! _
H ol
w ar
in d_
t ed_
l itt
k ing_
on g_
g oo
a d
up on_
p er
m an_
th ing_
Hol m
Y ou
k ed_
“ I_
n o
the m_
p re
com e_
th er
i r_
B ut_
th en_
an y_
t oo
d on
f a
d er
ov er_
oth er_
litt le_
You _
o ld_
som e_
ou r
ing ,_
i m
b ac
ev er
An d_
p a
t y_
? _
in to_
f u
c e
g g
g et_
e ll,_
ough _
th er_
t w
a f
d s_
th in
it ._
oul dn’t_
p i
h er
u m
I ’
a ll
g o
us e_
a m
j ust_
a d_
it ,_
e st
li ke_
on ,_
v i
w ere_
M r
e m
w ent_
di dn’t_
an g
say s
g i
m an
p ro
t s_
s c
r u
be for
i l
m in
bo dy_
t ur
som e
kn ow_
an y
ar d_
ha s_
s ha
c an_
e c
g o_
w an
b l
m e,_
says :_
on e
th at
ri ght_
p p
d u
b er
en ,_
m ar
wi ll_
y s_
don ’t_
goo d_
ow ,_
e l
ab le_
as t_
wh o_
tw o_
f ac
y e
Mr ._
c i
! ”_
ain ’t_
d er_
es ._
e d
on g
s s_
c o
war n’t_
k ,_
c an
m u
bac k_
e d,_
Th en_
n ever_
n oth
i m_
ti me_
’ d_
ma de_
mor e_
on ly_
u s_
le ,_
W h
k s_
g e
h ow_
ing ._
g r
of f_
“ ‘
be ca
u l
th r
S o_
befor e_
t ing_
st e
s p
ag ain
J im_
ow n
ow ed_
too k_
gh t
W e_
te ll_
di d_
st i
f ir
thin k_
d one_
h ou
th an_
s ed_
the ir_
pl ac
wh ere_
ma ke_
mo st_
a way_
re e_
sel f_
h and
Th ere_
c t
“ N
b r
be t
m ust_
a -
re ck
p ar
ma y_
d d
at e_
g e_
a m_
on ._
c lo
ta ke_
m e._
j ec
c ha
beca use_
ou b
in d
“W ell,_
go ing_
n ing_
the m
ou ght_
h ,_
es s_
es t_
wi th
af ter_
y ing_
ti on_
c ouldn’t_
ar s_
b u
l ong_
sh ould_
f t_
o b
ni gg
ou s_
l ed_
se ,_
c l
n a
su ch_
T he
c ar
c or
le t_
e d._
en d_
e y
gi ve_
s er
e p_
p ut_
sa y_
m at
Holm es_
noth ing_
ch ed_
th ing
ar ound_
it e_
to ld_
g u
d r
se t_
sh _
l an
c le
st r
c ri
gh t,_
jec t_
t ’s_
ati on_
ou t
’ ll_
s si
ut en
P ro
st ar
uten ber
u d
f oo
m y
mu ch_
n ow_
wa ys_
t al
t ra
ever y_
fu l_
b rea
er s_
ever y
he ard_
p s_
“ Y
ur e_
ar y_
. ’_
h o
c oun
st a
en ce_
f ound_
on s_
The y_
ar d
si de_
W ell,_
p ri
le a
sha ll_
wan t_
mi ght_
S he_
c r
t re
t ty_
“ H
“ O
b i
ro om
w ouldn’t_
com p
s pe
h un
Pro ject_
G utenber
c _
T om_
o ,_
he a
es e_
ll ed_
him ,_
n ed_
f f
w r
he ad_
M is
u ck
c hi
f ri
it ’s_
h ere_
a p
da y_
I f_
he l
d re
g re
say s_
en ed_
loo k_
al ong_
v e
sel f
e p
in e_
th ree_
thr ough_
min ut
him ._
s k
pe op
m p
p r
A _
“W h
st an
T hat_
it i
qu i
v ing_
ti m
er ._
k ._
h ow
d ar
ca me_
pre tty_
b us
c e,_
w ind
s li
al ways_
you ,_
v ed_
s .”_
“ You_
h _
l ast_
of f
it s_
om e_
s he
wor k_
e ’s_
ha l
b le_
w oo
p t_
s on
Mis s_
a w
p as
t e_
ri ed_
x _
“ It_
you n
e t
r e_
loo ked_
wh o
w om
m one
s ;_
un der_
I’ ll_
w on
fir st_
s w
st ,_
’ a
h or
th ese_
’a ’_
pp ed_
f ind_
in ,_
d -
ow ._
si d
ti ll_
g a
le ._
y .”_
b an
b ro
— and_
se e
k ind_
f o
ro om_
with out_
so on_
as e_
f l
c our
some thing_
ing -
Holm es,_
J im
th ought_
c re
f e_
p ed_
youn g_
u gh
ni ght_
s on_
an ce_
Gutenber g
li ght_
ar m
u re
t t
la y_
i d
th en,_
Wh en_
or ,_
y -
le ft_
the y
E _
po in
any thing_
an d,_
s l
c ur
M y_
n e_
peop le_
le ss_
g ent
tur ned_
do or_
r y_
that ’s_
at ed_
d ed_
en t,_
y ;_
e as
W at
lo ck_
se en_
ac k_
T his_
we ll_
d own
bet ter_
c u
h and_
v er_
s or
st ri
in ter
he ar
g ed_
se em
S her
en ough_
d ro
all y_
se ._
ev er,_
be h
d oub
pre s
le s_
Gutenberg ™
de a
he ar_
u e_
bus in
loo king_
o ver
ke ep_
“O h,_
d ing_
tr oub
le t
wa y,_
c er
i ll
S t
la id_
d n
I n_
an sw
, ’_
in ’_
man ,_
“ And_
c e._
oo k_
sti ll_
to o_
an other_
Gutenberg™ _
t ain
n er_
v es_
re mar
d ra
st re
se s_
hou se_
p u
sa w_
he ad
plac e_
th en
s po
’ re_
ong ,_
“ But_
v en_
p or
for t
ou t,_
up ,_
nigg er_
est i
l ing_
gh t._
h ur
e ar
on ed_
s le
g ra
I’ d_
c ed_
us ed_
st er
p la
e le
sa me_
s ol
con si
fe t
wan ted_
can ’t_
ll ._
e a
rea d_
ag e_
fac e_
d es
du ke_
ti me,_
c op
t ow
thing s_
da y
“ A
E R
u ck_
oo d_
rea dy_
gu n_
kn ow
say s,_
ll y_
“ The_
un der
on e,_
it ed_
s ma
th ough_
st ru
tr y_
r at
kn e
b ed_
p er_
hal f_
on i
s ing_
gent le
Sher lock_
it y_
oun d,_
f lo
reck on_
ha pp
ou s
c t_
x t_
ck ed_
r ed_
l in
beh ind_
be ing_
qu ite_
“Wh y,_
ar ds_
m en_
si g
m ind_
whi le_
f re
hand s_
l y,_
p en
k es_
bi g_
s ing
wa l
ru n_
c at
ar ed_
W hat_
th i
e l_
for m
si r
b ri
him self_
you ._
b _
b er_
sa i
a in_
who le_
com m
n ow,_
kn owed_
st ra
dre s
S t._
r an
n at
ther e,_
s on,_
r ound_
mat ter_
r un
fe w_
me an
oun d
consi der
how ever,_
“W hat_
g l
you r
l t_
s we
“ D
sh ed_
t en
ey es_
fr on
st or
I t’s_
la ugh
I ._
h ard
w he
hel p_
wa t
s ur
e .”_
e ;_
v en
st er_
tim es_
sh or
A s_
? ’_
ent ._
t en_
s hi
be li
R o
ha t
s up
ter ,_
z _
h ed_
seem ed_
ff er
i ght_
I’ m_
st op
T H
ch ar
fo ll
sma ll_
fa mi
mor n
tur n_
th o
ne xt_
v an
t own_
c ul
ri ver
again ,_
ch ,_
li c
ang e_
fri en
“Y es,_
po ssi
j ud
o ’_
it ;_
ag ain_
m any_
s in
“N o,_
un ti
mone y_
— ”_
it .”_
we e
com es_
g lan
mi le_
c ol
bo th_
la w
wa y._
ck ,_
ter ._
c ase_
ha dn’t_
we en_
Holm es._
be g
h op
ha t’s_
’ ve_
l y._
d ;_
s en
ac k
as ked_
b le
g one_
ap pe
t ri
my self
ro ss_
again st_
b ut
wa y
1 .
st ._
c ab
re as
in ed_
unti l_
h ome_
b oo
b or
fron t_
gh ty_
ri ver_
th ,_
them ,_
to -
es .”_
l at
on ce_
ev en_
y et_
hi gh
be gun_
ing s_
he ’d_
v e,_
st ed_
th er,_
g ir
na me_
mor ning_
st ood_
bet ween_
B y_
won ’t_
he ,_
st and_
o c
su dd
ll ing_
ati on
n or_
wi sh_
t ting_
tr u
s —
room ,_
too ,_
or ._
them ._
pl an
f ar_
e f
ra f
mi ghty_
hard ly_
reck oned_
l ow_
A r
li st
e t,_
star ted_
ha ving_
da y,_
in ’t_
l ,_
la d_
m ed_
do ll
B o
m on
ent s_
ow s_
fi ve_
lea ve_
I ,_
ar ,_
that ,_
“ S
bl ack_
c all_
do es_
qu esti
s na
n ow
d ri
my self_
“ G
h an
k en_
op en_
en er
tal k_
si l
fu ll_
U n
c ti
no ti
ma y
e -
ra ft_
en g
ni ght
ri ght
E n
T om
f our_
fa ther_
S _
h ar
wi d
ch e
er ed_
k er_
ni ght,_
k i
f in
I n
’ n_
can o
pa per
po s
b ur
ne w_
Wh y,_
m ,_
p ,_
qu ar
M ary_
stru ck_
ter ed_
di ffer
com ing_
ac ross_
i s,_
a u
s un
he ’s_
“ P
la d
k e,_
to ge
sta ir
brea k
dar k_
p le
ab o
al ong,_
g s_
every thing_
c tion_
eas y_
he ._
me ;_
st and
ye ars_
any body_
se con
sai d,_
p e_
busin ess_
of fi
e i
ha in’t_
H is_
c le_
s m
j o
b out_
r us
e ve_
d .”_
b a
in de
as k_
ti me._
sh o
c ou
p ow
ter s_
whe ther_
f ur
si x_
u z_
n ,_
so ,_
. .
l ar
no body_
ch es_
inter est
th ir
ca lled_
po or_
w oul
th re
m s_
h u
s ure_
tr ac
tow ards_
gre at_
every body_
e ce_
bo d
in di
gg ed_
m en
n er
ow ing_
vi ll
l ong
l s_
tho se_
S tre
ra y_
t .”_
es ;_
C H
X X
i c
on e._
m er
ce i
b la
e ly_
h our
ar r
be st_
an t_
foo t_
un t_
ra ther_
H uck
e —
ele c
ex ce
rea d
fe el_
d in
ta in_
v is
troub le_
po li
fe lt_
v o
l ot_
ke pt_
wa s,_
ob ser
con t
so ._
ing ;_
TH E_
“ T
oni c_
mi dd
f er
y er_
k in
g lad_
p le_
me m
ll ow_
t own
es s
as s_
whi te_
elec tr
o ’
s ’
ER _
wom an_
de ar_
ev en
m ent_
p h
t ly_
ct or_
en ough
cour se_
di stri
j um
I’ ve_
dra w
da ys_
ex am
l and
l and_
d at_
s at_
ke d._
minut e_
fri end_
ri ght,_
ch ing_
ssi on_
sh oul
y ’s_
us ,_
again ._
— I_
E N
H a
de ad_
ul ar_
st at
woo ds_
pi ece_
li ke
i on_
br ought_
di sc
i se_
in stan
kne w_
de y_
at ,_
in ._
me .”_
M a
consider able_
c and
s at
war d_
em ent_
cha ir_
g li
see m_
can not_
electr onic_
mi s
t -
T _
J an
b ar
may be_
ea ch_
her e,_
beli eve_
’ n
O ne_
n ow._
di s
por t
ou t._
cer tain
A unt_
on ’t_
that ._
woo d
hun dr
hundr ed_
f fi
jud ged_
at ing_
sat is
ar ly_
gentle man_
st o
pr om
ati ons_
i ous_
N ow_
sh ow_
al ready_
n s_
re st_
in v
ga ve_
wh y_
0 0
it ?”_
s ?”_
we a
n am
fet ch_
ad d
ther e._
y ed_
h er,_
ther e’s_
i l_
ct ly_
s mo
Mr s._
ge tting_
fort un
ne w
ent y_
s ’_
ir ,_
ch ._
ing .”_
h and,_
po ck
wor d_
oth er
wh er
with in_
ar ing_
wor ks_
h om
do or,_
s ound_
m p_
es s._
hou se,_
doub t_
g w
en ._
th ._
“ He_
S a
wom an
d at
S aw
la dy_
fi f
g it_
re mem
f ol
ati on,_
th ous
sur pri
pri son
par t_
af ter
t u
f un
man ._
“ That_
H ar
secon d_
wor ds_
se e,_
sid e,_
ne i
wa it
an k_
y ne_
L on
F ound
h our_
sh ov
wind ow_
fi re
e t._
m ur
gw yne_
off ,_
all ._
us ._
“ B
“ Th
c al_
cle ar_
bo at_
ac coun
g ener
ma g
per ha
th ing,_
do ing_
wr it
c la
c li
en ly_
e m_
i on
L or
ex pe
pa per_
c ra
t ried_
hou se
po se_
ca st
ac ti
coun try_
sa ve_
! ’_
ther ._
e ?”_
CH A
“ My_
B a
str ange_
le ar
is ed_
’ em_
i g
d ge_
li ght
si ght_
say ing_
ab le,_
f ree_
t s,_
c ted_
they ’d_
P T
D _
b ad_
comp an
le an
d ang
C ar
en ce,_
re cei
o’ clo
se cre
P e
cano e_
cri ed_
op ened_
v ent
Holm es
e f_
per fe
Gutenber g_
l ine_
morn ing,_
l it_
ban k_
a ll,_
rea lly_
ent ly_
m om
m ou
ca p
cou ple_
es s,_
pas sed_
wa ter_
r y
sa y,_
er y_
down ,_
river ,_
ch ance_
ye ar
M c
be d,_
r en
te en_
d ev
hal f
re g
th ing._
b ir
ha ir_
re ma
D o
“N o
sh owed_
di re
in s_
ll s_
’ t
nat ur
c ut_
se ven_
fi x
g ,_
then ?”_
PT ER_
CHA PTER_
ste am
me an_
h ard_
’ bout_
se d,_
i es_
n ess_
li fe_
chi l
a li
u m_
s mi
h ol
t op
F or_
ar ound,_
cr ow
su re
c ro
k s,_
your self_
Wat son,_
per son_
u te
bo tt
R u
you ’re_
to ,_
l ._
room ._
up ._
you .”_
“ C
1. E
ne ar_
so ci
fe el
answ er
d er,_
oth er,_
wi fe_
com fort
sk i
stand ing_
midd le_
ter ms_
cor ner_
dro pped_
ag re
di sa
al so_
st u
h us
t wi
cop y
th y_
myself ,_
too ._
) _
F _
some body_
Ru cast
ke d,_
mor e._
m et_
d g
lar ge_
ur ing_
bac k,_
ma kes_
oo l_
A ll_
sig n_
ati on._
do or
th ough
all owed_
em p
im port
I s_
the s_
es si
di st
A t_
star t_
dr un
se ver
la ying_
1.E .
y ?”_
Mc Car
“ L
A N
I N
O R
“ Then_
f ast_
possi ble_
an c
Lor d_
hop e_
sle ep
W il
p ing_
c ir
e ll
J o
s qu
wa ter
clo thes_
pro vi
sta y_
tr ying_
man ’s_
y ,”_
le -
O F_
A R
high _
ar d,_
plac e,_
c en
S im
ang ing_
co ll
fami ly_
G o
s of
wh om_
iti on_
r ow_
el se_
as si
ab sol
ong st_
hea v
abo ve_
sa w
bo y_
you ’ll_
al ,_
e ,”_
ir ._
to ._
doll ars_
sin ce_
fet ched_
minut es_
L est
ri ght._
f ing
vis it
bac k
he ld_
as le
we ll
li m
O n_
Lest ra
af ra
say s._
clo se_
ei ther_
p ut
Ro y
an ’_
ck ._
n ._
one .”_
“ It’s_
£ _
p an
su b
ex c
i de
fir e_
our ed_
z ed_
de ep_
k er
nigg ers_
un g_
O h,_
ta il
pr in
wa it_
wor l
ab le._
D o_
am ongst_
ct or
t or
disa p
ra p
D r
u r_
b ra
w ro
wa s._
ha t,_
let ter_
en ti
ca u
s us
do ,_
s -
at ._
R E
spe a
p ain
thous and_
distri but
su c
wor d
te d,_
ag e,_
com e,_
fac e,_
“W e_
pro f
do g
w hat
W i
thin k,_
wal ked_
o ll
str ong_
sh ot_
t ou
kn ow,_
f ra
copy right_
lo st_
coun tr
ch ur
p ur
w w
b y,_
ar ._
you ?”_
“ There_
t able_
ch an
f as
ple as
le ast_
p ast_
ro b
remem ber_
in cl
be d
shoul der
con f
le f
f f_
break fa
satis fi
aw ful_
ni ght._
rus hed_
ev id
sh in
b it_
ab ly_
h old_
am ong_
sh ook_
e or
n or
N ow,_
H ow_
wid ow_
ste p
stop ped_
ex pla
st rea
g ri
mar ri
wa s
ure s_
ca se
stre t
lan ter
j u
n u
d uring_
k y_
t ’
sir ,_
0 _
ci al_
sever al_
M ar
n arr
c as
St at
li c_
hea d,_
won der
me di
om e
ther e
mor e,_
sid e._
p er,_
c es_
stra ight_
pp ing_
fa ir
s itt
thin k
C la
like ly_
i mag
c old_
c oul
shi r
er s,_
ck s_
th s_
pas sa
Wat son
’ t._
at ten
par ti
ca use_
gi ven_
s wi
half -
Dr ._
do ._
p ._
I I
e ag
ye ar_
be au
pu b
um b_
ac c
s ch
do ctor_
A d
mi d
te d._
hi d_
com e._
b en
sudd enly_
go es_
afra id_
cont in
wr ite_
wa ited_
in k_
bro ke_
as ked._
Ba ker_
tal king_
ce ll
fe ll
fe ll_
te mp
y on
“H ow_
pa p_
perha ps_
t s._
dre ss_
my ster
wro te_
beau ti
gh ts_
us u
bl ue_
g un
T ur
dro ve_
we ’d_
they ’re_
Jim ,_
ed .”_
ed ;_
him ;_
e B
Y _
ide a_
char ac
sh ar
c are_
co at_
pro b
lo cked_
frien d
f e,_
v e._
min e_
itt en_
s ent_
v in
k ind
k ing
feel ing_
qu ir
Un ited_
remar ked_
wor ld_
we ll,_
b loo
H o
im p
sli pped_
F ran
B ri
le s,_
on s,_
our sel
under stand_
accoun t_
some times_
e ts_
se tt
sing ular_
w uz_
ob vi
dn ’_
Jim ’s_
a ,_
“ This_
p add
b ag
str ang
se ar
l ate_
st ate_
possi b
ru b
ri ble_
perfe ctly_
si de
de du
at e,_
k e._
se e._
ut e_
sudd en_
G eor
it er
answ er_
vo i
c ing_
w it
brea k_
tal ked_
ma king_
beca me_
run ning_
reas on
any one_
n one_
st one_
l ong,_
M or
do or._
t’ other_
s per
ste ps_
k s._
paper s_
u se
cour se,_
hou se._
no t
’ t,_
be t_
hear t_
sor t_
ver ti
da ugh
sh ut_
li ve_
ad verti
a way,_
t y-
pa y_
she ’d_
we ’ll_
Tom ,_
no ,_
g ._
“ A_
par ag
ste al_
li ar_
- b
Ar chi
qui ck_
ffi cul
parti cul
ci d
oun d._
e e
ey e_
fix ed_
il ed_
ne ed_
v el
list en
differ ent_
j est
hun g_
kn i
per i
see ing_
wait ing_
wor k,_
su l
foo l_
al ong
D on’t_
f our
wind ow,_
kn own_
p rea
car ried_
le s
arm s_
at s_
s sed_
a st
wor th_
c us
s y
r y,_
heav y_
it —
her ._
m ._
on .”_
t ;_
A D
L I
stop _
c al
pro ble
o’clo ck_
de d,_
R e
Jan e_
di ed_
m ent
n er,_
nigg er,_
oth er._
V ery_
on es
O f_
di fficul
a- going_
ll i
W ill
br ing_
a ir_
ra ised_
we l
s la
ki ll_
fu lly_
ute ly_
su m
si mp
N o,_
S ome_
wh oo
Y our_
m ov
thr ow_
foll owed_
b re
d rea
cu ri
f ro
t ro
ro se_
wi shed_
rat t
re turned_
ser van
ad vi
thre w_
t y,_
! —
he ’ll_
over ,_
self ,_
.. ..
him .”_
gr ac
natur al_
re al_
beg an_
r an_
h anging_
do an’_
run away_
tra de
mur der
for e
vi e
befor e,_
tur e_
ag ed_
head ed_
s end_
happ ened_
ch er_
H ere_
d ge
su gg
li ght,_
to gra
Jo h
as h
fas hi
p ho
Will i
us i
sa id
bu il
ta king_
re l
“A ll_
pu lled_
be low_
ar m_
v ol
h on
s on._
t on_
H or
s ou
l ow
kn ow._
cur r
d read
sor ry_
p s,_
stair s_
whi sk
mi ssion_
assi stan
lo t
shor t_
fac ts_
re tur
S u
l uck
co ver
happ y_
— —
’n ’_
you ’d_
ure ,_
down ._
“ If_
pr acti
g an
iter ary_
pi ci
lo ck
a d,_
hea d._
or din
goo dn
fac e._
ti ed_
b en_
c ent
asle ep
de ep
nigg er
pow er
y es,_
qui et
sa fe_
ba g_
ran g_
C h
as h_
W hi
ar i
S il
F in
noth ing,_
r ing_
ta ken_
one l_
litt le,_
ha ll_
certain ly_
in no
“Y our_
sus pici
F r
car ri
en se_
dres sed_
in spe
poin t_
fa ther
toge ther_
pho togra
Q u
h um
J ust_
lo ve_
cr y_
Saw yer_
? —
you ’ve_
enough ,_
ever ._
O N
top _
p ac
ro ad_
de al_
ne arly_
M ars_
ordin ary_
Found ation_
suc c
en ce._
cat ch_
ri ch_
wat ch_
Un cle_
oc cur
war d,_
sai d._
li d_
Lon don
in e
d e,_
g e,_
shov ed_
op en
c ent_
mom ent_
sle ep_
beli ev
er e’s_
S he
us hed_
t in_
k ing,_
K ing_
sp ir
s it
L iterary_
wr itten_
comp le
bu ll
d ly_
le m
trade mar
ti me
r oo
th or
ste p_
jum ped_
a pp
P re
ar ri
se s,_
room s_
i st
wa ter,_
— that_
fa ther,_
n um
’ uz_
Archi ve_
la w_
’ ,_
off ._
le ;_
“ They_
de ad
S ally_
b and_
appe ared_
cir c
poli ce_
fe ct_
goo d,_
i d,_
hi de_
chil dr
oun ds_
j e
fe e_
happ en
m ent,_
ke ep
answ ered_
Y es,_
on es_
prof essi
dread ful_
char ge_
nei gh
pa id_
op in
t in
k is
dar k,_
bac k._
spo ke_
Rucast le_
mi les_
we ll._
ca mp
in ning_
after no
cor on
questi on_
l or
flo or_
l ou
wind ow
’ s,_
know s_
seem s_
mi sta
pro te
mat ter
Wi th_
incl ud
b un
cra w
s wa
fi x_
h y
da y._
do z
y —
w ,_
s ,”_
st -
L E
S T
OR _
S all
appe ar
e at_
y body_
it ch
rea ched_
glan cing_
thi ck_
le d,_
i dea
minut e,_
befor e._
don e._
pi ec
laugh ed_
pres ent
pl enty_
tw enty_
est er
ey es,_
v es,_
inter est_
qui et_
break fast_
di g_
do g_
lo g_
b ing_
ra ise_
remar k
wal k_
thin king_
sing le_
te lling_
A mer
N o
T o_
st ol
bott om_
comm on_
d on_
reas on_
al one_
b ook_
gr ound_
bl ow_
ex peri
s pl
O r
w ri
head s_
adverti se
hor se_
in side_
out side_
whi sper
la st,_
si ster_
cer tain_
at tered_
tr ue_
absol utely_
pri v
ati ve_
est ,_
go ,_
town ,_
up -
myself ._
ce .”_
says ;_
“‘ I_
“H a
gr ab
r ab
ste ad_
v al
on al_
J am
b and
ch ange_
g ard
bo ard_
form ation_
sti ck_
un cle_
crow d_
sli d_
car e
che e
ar e,_
ag e._
f e._
her e._
plac e._
z e_
as ed_
itt ed_
“W ell
list ened_
n er._
me et_
En gl
for got_
as hed_
W indi
us ing_
spea k_
A l
gir l_
f la
fu ll
ki lled_
fe llow_
’ m_
al most_
la mp_
lear n_
sig ns_
kn o
vi ol
ct or,_
obvi ous_
sl ow_
foll owing_
disap pe
ex pen
in quir
sp rang_
sc rea
he s_
hour s_
mean s_
be side_
Ho sm
as soci
pre ssion_
under stan
i ster_
in ten
de ter
let ter
on to_
m um
E ver
it y._
wa y;_
stor y_
r ying_
z z
ag ’
d !_
be ,_
self ._
out :_
e ?_
it ?_
s ?_
1. F
T I
“ In_
K _
ex ac
n al_
f an
doll ar
fe at
don ations_
rob ber
“ but_
glan ced_
noti ced_
con cer
con cl
des cri
goo d-
goo d._
han d._
Lon don_
at e._
bl ed_
cover ed_
m ent._
pres ent_
prison er_
v es._
“Y es.”_
fe et_
what ever_
A f
ci g
rap h_
w ha
p her
k ill
exam in
even ing_
g ing_
st ing_
th is
wor k._
wor ked_
fol ks_
loo ks_
wee ks_
gir l
fu l,_
is land_
o le_
pub lic_
te ll
i ll_
ous ly_
ve ly_
to- mor
was n’t_
ti on._
Sim on_
“D on’t_
eB oo
h oo
“N ot_
cl ou
sh ou
r ow
foll ow_
pro per
exce pt_
parag raph_
ti red_
hur ried_
hand s,_
law s_
who se_
clo sed_
fir st,_
l st_
ye t._
de tail
at temp
quar ter_
for th_
“ that_
fur ther_
ec tion_
bl u
cl u
contin u
li ved_
ad vent
g wa
after war
for ward_
t y
mone y,_
s !_
b ,_
il ,_
se .”_
ce ;_
“ E
R O
— a_
w and
ch ang
fe ar_
gr at
an ce._
noti ce_
si ck_
pe cu
frien d,_
for d_
we dd
Lestra de_
or der_
D e
spe e
wor e_
inde ed_
l en
op en,_
Hosm er_
Wh ere_
oth ers_
y ester
N ex
v ey
power ful_
En gli
wi gwa
w hat’s_
bl ing_
ck ing_
b it
p it
in k
du ke,_
a ke_
fu l
sto le_
comp li
foo li
I ll
wi ll
ro lled_
Roy lot
whi lst_
ear ly_
st ly_
for m_
s me
draw n_
C ol
st om
S ome
ti ons_
m other_
thr ough
b our
sl ow
ro p
um p_
ro pe_
ap pro
di r
cor re
mar ried_
ing- room_
al s_
der s_
hor se
lo se_
sen se_
fre sh_
per son
at t
poin t
instan t_
mat ter._
daugh ter_
en tered_
let ters_
Ar th
mou th_
McCar thy_
put ting_
re turn_
B uck
B uck_
fa ul
sh ut
recei ved_
a ver
oursel ves_
Saw y
Wh y_
gre y_
ke y_
oun ’_
er ’s_
e !_
Huck ,_
an ,_
camp -
1.F .
a ._
be ._
st .”_
1 8
on ;_
‘ I_
O U
XX X
comfort able_
bl an
y ards_
oc cas
ma ch
stret ched_
pre ci
re d-
frien ds_
ac e_
shor e_
m en,_
d en_
doz en_
“Wh en_
plac es_
acc ess_
Stre et_
she et_
her e’s_
re fer
beauti ful_
wa g
le g_
ed ge_
li ght._
cau ght_
T hat’s_
as hor
eas i
L ic
e ight_
cab in_
th in_
f ine_
n ine_
noth ing._
gg ing_
il ing_
ing ing_
st ir
ta kes_
is lan
p lay_
f le
cand le_
emp lo
re ly_
Joh n_
con ne
tw o
“D o_
c off
Fr om_
C ome_
b ound_
j our
dr own
shar p_
sli p_
sc ri
car ry_
ing s,_
d s._
ca se,_
mis sed_
i sh_
be sid
raf t,_
ye t,_
fif teen_
of ten_
en ter
Pe ter_
clo th
— the_
bro ther_
mon ths_
cen tr
Pre tty_
dist ur
ad van
an x
mi x
l y
ar y,_
Ever ybody_
— you_
I ’s_
they ’ve_
as ,_
Watson ,”_
it ,”_
you ,”_
ck -
g .
S ._
k .”_
again ;_
k ;_
right ;_
them ;_
too ;_
“ M
“ So_
G _
t able._
p al
cle an_
“ and_
f ar
cle ared_
steam boat_
neigh bour
pi c
ni ce_
voi ce_
wat ch
tou ch_
wat ched_
un cle
pher d
min d,_
ol d,_
re d,_
understan d,_
ar d._
di dn
B e
H e
er e,_
ill e_
cri ed,_
answer ed._
plac ed_
he el
wom en_
tw ent
curr ent_
“Y es
tim es,_
Jam es_
li es_
inv esti
Stre et,_
L et_
dri f
investi g
le g
Geor ge_
ev ille_
beg in_
expla in_
on ing_
m ir
fa ir_
pos ition_
in j
Ma jest
wee k_
me l
wi l
know le
whi le,_
pecu liar_
se ll_
g lo
har m_
deter min
man ner_
j ob
g old_
C on
St on
st oo
sh own_
pi p
dro p_
p ray_
“P ray_
d s,_
thing s,_
way s,_
pas s_
Wat son_
no t,_
Nex t_
Pe ter
McCar th
p tion_
con tr
ex tra
thir ty-
H un
S un
a way._
on y_
bo ys_
t —
b ’
) ,_
ff ,_
fire ,_
d ,”_
me ,”_
down -
ed -
er -
w .
al ._
town ._
I ;_
up ;_
t ?”_
A G
V I
“ In
“ Qu
E S_
“ Very_
J ack
tr an
sp ar
Sil as_
p at
pl at
p ati
to bac
num ber_
A bout_
distri bu
ti c_
twi ce_
cat ched_
offi cial_
be come_
re cor
woul d,_
oo d-
thir d_
wi d_
ad dres
cri ed._
form ed_
agre em
’ em
g en
wood en_
“H ere_
tre es_
N eville_
li fe
con fi
w. g
utenber g.
fri ght
compan i
imag in
includ ing_
cha ir
ha ir
j is
drun k_
be l
so ld_
ther le
so lid_
fair ly_
cha m
ti me;_
lanter n_
tur ns_
L o
N o_
g one,_
l ones
utenberg. or
extra ordinary_
h ot_
L ou
“N ow,_
wind ows_
pi pe_
pa per,_
She pherd
s pi
ex plan
sp read_
re s
ent s,_
ou s,_
thi s,_
new s_
con sc
pos se
loo se_
her self_
wi sh
re sul
foo t
secre t_
no te_
mat ter,_
Af ter_
dea th_
Ha therle
me tho
ven ti
for ty_
st uck_
c up
tr ust_
w.g utenberg.or
ww w.gutenberg.or
bo x_
c y
cop y_
d —
jis ’_
le ’s_
we ’ve_
s !”_
um ,_
x ,_
“Well ,”_
ke -
n -
go ._
river ._
out .”_
one ;_
him ?”_
ing ?”_
me ?”_
D I
N O
EN T
cab _
P a
appro a
t able,_
remark able_
lo af
g ain
f all_
br an
th an
pl an_
bo ard
g as
br ass_
swe at_
c ated_
no ble_
steam bo
every bod
s ca
in cid
S co
sha d
oun ded_
won der_
L e
N e
ne e
fortun e_
v ed._
g el
agre ement_
d en
sc en
b ent_
cli ent_
f er_
re fun
han g_
An gel
do gs_
us h_
Amer i
a i
D id_
w in
ma in_
sk in_
tra in_
w ind_
n ing-
ind ing_
beg inning_
cha ir,_
k itch
smo ke_
remar ked,_
mar ked_
mi l
ve l_
ye ll
sti ll,_
sti ll._
su lt_
bla me_
cri me_
ag o
ag o,_
c of
bo om
M on
n on
sp on
ir on_
c oo
sh oo
sch ool_
the or
S ou
r ou
hel p
O pen
ac qu
sc ra
ar re
t ree_
s s,_
stair s,_
i s._
on s._
st s_
u se,_
wor se_
surpri sed_
fi sh_
re spe
fa st
ma ster_
bu t,_
ac t_
hun t_
bro ther
nei ther_
ru ther_
ex tre
poin ts_
wan ts_
fif ty_
sit u
H uck_
reg ular_
D un
O ur_
nat ure_
E very_
dre w_
t wel
st y
it y,_
wh y,_
l y.”_
bu y_
ne y_
ing —
Holmes ’_
you ’s_
* *
. ,_
well -
U .
sir ._
’ ._
them .”_
in ;_
you ?_
E D_
B ER
ro ad,_
st ag
marri age_
f ain
Willi am_
Engl and_
sc ared_
gr as
gre at
co at,_
be at_
priv ate_
associ ated_
hus band_
Sher bur
ne c
con ce
glan ce_
offi ce_
mu ch,_
chur ch_
expe cted_
worl d,_
ro de_
en dea
or der
lad der_
rea ding_
afterwar ds_
ti e_
ne ed
fi ed_
whe el
H en
gard en_
differ ence_
str eng
Lic ense_
G er
des er
and er_
m es
v es
ey es._
Stat es_
ti es_
nec ess
busin ess,_
goodn ess_
stre et_
swe et_
ef fect_
ef for
fi g
gan g_
er ha
T hat
“W hat’s_
dist in
k in_
rema ined_
distribut ing_
sitt ing_
z ing_
sna ke_
wa ked_
bro ken_
dar kn
mar ks_
venti lat
chi ld_
doub le_
so lem
se ly_
slow ly_
M o
Wh o_
T oll
si on_
Col onel_
wr ong_
ast oni
am oun
m our
disc over
jum p_
m pa
G r
sc rat
ag ree_
enti rely_
I ren
ter rible_
g ro
c ru
dres s
er s._
hand s._
ou s._
sing s_
goo se_
surpri se_
it self_
ca ses_
Open sha
di sp
mi ss_
i st_
mo stly_
pi stol
but t
fac t_
poin ted_
bet ter._
toge ther,_
wea ther_
p ti
let ting_
atten tion_
ge ts_
se tting_
e ty_
cl umb_
l un
fl ung_
endea v
fa v
ser ve_
sho ve_
wa y.”_
anc y_
dat ’s_
y !_
she ,_
Holmes ,”_
ce -
dog -
arm ._
der ._
ure ._
all .”_
so .”_
st ;_
you ;_
y ?_
II I._
“ Is_
“ She_
I V
ne a
lo ad
bro ad_
le ad_
v ag
gener al_
usu al_
cle an
“Th ank_
comp any_
sc ar
squ are_
te aring_
appe ars_
gr ass_
fortun ate_
com be_
grab bed_
ac ce
on ce,_
sear ch_
ne ck_
s combe_
pi ct
do ctor
An d,_
ha d,_
be d._
di d._
re d._
se d._
bloo d_
i de_
W e
nam e,_
g e._
hom e._
fi el
d en,_
d ence_
sil ence_
g er_
l er_
n es
iti es_
Stre et._
coron et_
k et_
roo f
wi fe
e ful_
sun g_
jud ge_
hun gr
Bo he
un i
van i
cop ies_
Ill in
rema in
st in
ra in_
imag ine_
k ing._
er ing_
oth ing_
k ings_
occas ion
pa ir_
exc it
pos iti
ban k,_
Fran k_
remar ked._
- kni
fu l._
wi ld_
ab le
ho le_
pa le_
simp le_
Or lean
un less_
exce ll
m med_
Bohe mi
ad mir
war n
light ning_
tur ning_
ig nor
Illin o
P o
“T o_
s ons_
tr ou
c ow
br own_
ty pe
photogra ph
im pression_
B ra
w re
Hen ry_
ow s,_
y s,_
day s._
Bo scombe_
pres sed_
hor ses_
astoni sh
fooli sh
pas sing_
mi ssi
whi st
pre su
mo s’_
ke t
hur t_
in t_
ac ted_
— that’s_
toge ther._
fl u
l u
sol u
ch uck
l uck_
ca used_
p ushed_
d ut
f ut
dri ve_
mo ve_
obser ved_
hea vi
con vin
si x
The y
all y,_
lad y,_
c y_
pla yed_
l ying_
“ you_
Sa ys_
me —
ain ’_
sure ,_
woman ,_
in -
me -
K ._
along ._
enough ._
how ._
er .”_
ve .”_
know ;_
se ;_
thing ;_
es ?”_
that ?”_
“ I’ll_
A L
U N
U. S._
gh _
fe a
st ab
prob ably_
cr ac
ro ad
acqu ain
st ain
L an
import an
import ant_
P ar
cell ar_
cle arly_
te ars_
d as
gl as
W as_
k ase_
c at_
sti c_
lo cated_
en ce
whi ch,_
mu ch._
si ch_
ker chi
wat ching_
dire ction_
inspe ctor_
Bra d
In di
kin ds_
pro du
te e
dg e,_
ar e._
her e.”_
Iren e_
S ection_
determin ed_
hand ed_
ur ed_
at ely_
g em
wh en
Th en,_
childr en_
c ents_
m ents_
fun er
long er_
on es,_
ri es_
Th ese_
n ess._
conf ess_
j est_
stre et._
swi f
passa ge,_
passa ge_
Bo gg
i ght
ni ghts_
“A h,_
p h_
consc i
no i
ma id_
cla im_
cha in_
pla in_
gr ind
f inding_
exam ined_
morn ing._
interest ing_
is ing_
m ing_
shin ing_
us ion_
ser ious_
a ir
d is_
prom ise_
s it_
su it_
“Qu ite_
il ity_
ob ject_
loo k
du ke
hand kerchi
thin ks_
peop le,_
p lea
day light_
ho ll
wi ll,_
e ll_
ve lo
gir ls_
ing ly_
drea m_
s mar
per mission_
me mor
gli mp
O n
an n
cor n-
u n_
“O n_
or ner
fur ni
ol o
tw o,_
ag o_
“Wh o_
h one
some one_
str ong
sch oo
L ook_
flo or,_
r or_
visit or_
an other,_
r ough_
C oun
H ow
fell ow,_
car pe
sup per_
fu r_
P ray_
Ch ri
sh ri
hor rible_
b right_
st ro
th ro
ck s,_
wa s;_
door s_
us s_
po sed_
hou ses_
co st_
um stan
bu sted_
advan t
par t
coun t_
un te
wa ter._
mat ters_
ear th_
ar ti
mo ti
Some times_
distribu tion_
instan tly_
in tro
proper ty_
J u
dra u
st ud
reg ul
r um
r up
fig ure_
exc use_
absol ute_
Har ve
cti ve_
i ve_
pro ve_
si ve_
sa ved_
en velo
stra w_
any way,_
any way._
bo x
ta x_
cr y
bo y,_
twent y-
st y_
“Wh y_
sta yed_
law yer_
ed —
me ’_
mo ’_
we ’re_
father ’s_
it !”_
c ,_
sleep ,_
t ,”_
and -
ll -
fire ._
ation .”_
do .”_
now .”_
er ;_
out ;_
that ;_
d ?”_
V ENT
R I
Y OU
VENT U
AD VENTU
“ You
op _
be a
v ac
man ag
carri age_
B al
b al
sc and
cle ar
disappe ar
ye ar,_
f arm
r as
gl ass_
cre at
thre at
— but_
expe c
se c
i ch
in ch
rea ch_
thi ck
pi cked_
se cur
ri d
dea d,_
pe d,_
bir d_
brea d_
ma da
bri de
“In de
provi de_
knowle dge_
hol ding_
woul dn
woul dn’_
ad dress_
a dy_
S e
all e
“B e
D e_
scen e_
tor e_
L eag
un eas
exce ed
inde ed,_
believ ed_
chang ed_
fac ed_
fre ely_
kitch en_
list en_
experi ence_
excell ent_
sil ent_
M er
cl er
b er,_
H er_
dang er_
Th ere’s_
busin es
stre ets_
H e’s_
satis fac
af fair
a fe
there for
in formation_
be g_
ud ge_
li ghts_
rus h_
as ha
“W hat
a head_
S id_
am id_
“D id_
ch in_
l ing,_
dress ing-
h ing_
writ ing_
p ir
Cla ir_
qu it_
— just_
mar k_
stri ke_
wa ke_
li ked_
troub le
padd led_
smi ling_
mi ll
sti ll
bi ll_
pu ll_
ye llow_
be long
comp ly_
im men
cri min
tra mp
s n
E n_
bor n_
wor n_
to- night
C om
ti on,_
professi onal_
g one._
“G ood_
C op
N or
b other_
s oul
ar ound
r ound,_
curi ous_
narr ow_
y o’_
hel p,_
sup per,_
sup pose_
erha ps_
sle pt_
e qu
p ra
occur red_
F ren
fer ry
cro s
new s
ri s
spo s
day s,_
les s,_
’ s-
thing s._
b s_
rat s_
him self,_
fi sh
y si
cro ssed_
Chri st
le st_
di stan
Sco t
raf t._
amoun t_
shir t_
sof t_
er tain
ho te
whi te
hun ted_
brea th_
pa th_
some thing._
pic ture_
thir ty_
A u
D u
val u
J udge_
th um
“Ha ve_
lo vely_
con ven
Ad vent
con ver
T w
a way
some wher
te x
R y
mone y._
t y._
i zed_
they ’ll_
reck ’n_
woman ’s_
’ ”_
ed !_
es !_
y !”_
asleep ,_
of ,_
own ,_
saw ,_
thin ,_
at -
ch -
re ._
ch .”_
know .”_
1 00
s :_
now ;_
do ?_
Jim ?”_
on ?”_
out ?”_
them ?”_
E C
S E_
“ I’m_
T O
I T
U T
“‘ You_
YOU _
pistol _
— _
bl ack
tr ack_
eng ag
man aged_
fin ally_
Willi am
pleas ant_
St ar
ne ar
y ard
sp are_
L as
m as
be at
flo ating_
advi ce_
dedu ce_
en ces_
tou ched_
prea cher_
prin ci
si ck
pi ck_
wre ck_
re co
prote cted_
Do ctor,_
oc cup
bun d
cre d
a d._
de d._
kin d._
min d._
refun d_
ri d_
u d_
Sun da
kin der_
lo dg
la di
di dn’_
vi du
K e
mor e
cano e,_
hom e,_
som e,_
t e,_
ther e;_
centr e_
distribut e_
coll ec
di ed,_
v ed,_
whisper ed_
k en
lic en
te en,_
evid ence_
pres ence_
l eng
s ent
agreem ent,_
w ent,_
pe ep
ang er
dang er
fing er_
pow er_
B es
k es,_
minut es,_
“Y es;_
at es_
kne es_
n ess
pock et
pock et_
re f
sa fe,_
ski ff_
su ffer
bag g
for get_
be gg
sli ght_
ti ght_
le gs_
dis gu
is he
tow head_
conven i
op i
dev il
say ing,_
laugh ing._
keep ing_
lean ing_
ter ing_
compan ion_
opin ion_
ha ir,_
cha ir._
Illino is_
Lou is_
no ise_
“ it_
sp ite_
ob jec
wee k,_
sun k_
sna kes_
sha king_
wal king_
wor king_
boo ks_
e ld_
troub le,_
peop le._
pi le_
sett le_
A li
Ju li
de li
de lic
foo ling_
fa ll
wa ll_
s lo
b ly_
in ly_
possib ly_
tre m
di m_
ha m_
war m_
gentle man,_
hu man_
im medi
water mel
bla me’_
sy mpa
lear ned_
light ning-
das n’t_
T o
g ol
fr om
b on
mo on
t ong
cti ons_
c ool_
D or
flo or._
N ot_
N othing_
gr ound,_
ar ound._
preci ous_
g ov
c over_
sh ow
“N ow_
thr owing_
up per_
sup por
s’ pose_
ste pped_
F ri
bor row_
Mer ry
car rying_
ar s,_
detail s_
wa shed_
re st,_
si ster
hi t
star t
c t,_
doub t,_
though t,_
lef t-
difficul t_
faul t_
prin ted_
charac ter
every thing._
hun ting_
ac tu
fra ud
st um
circ umstan
comm un
vol unte
Arth ur_
fut ure_
min ute
twel ve_
gi ves_
lea ves_
indi vidu
lea ving_
dra w_
gre w_
vie w_
for ward,_
a while,_
ro y
countr y,_
bod y._
countr y._
fo ’_
Tom ’s_
d ’s_
son ’s_
for ,_
re ,_
ver ,_
with ,_
ing ,”_
on -
p -
se -
self -
case -kni
.... ....
1 ._
3 ._
Jim ._
with ._
s .’_
al .”_
her .”_
in .”_
’ 8
so ;_
then ?_
do ?”_
for ?”_
“ By_
“‘ Oh,_
1 _
job _
j a
v a
j ac
pe ac
Re ad
le ad
vill age_
eng aged_
ste al
p al_
y all
t all_
b ang
g ang
Gr anger
th ank_
b ar_
be ar_
particul ar_
bo ard,_
abo ard_
b as
l as
“W as_
ce ased_
it ation_
n ation_
st ation_
el b
pro c
“Be cause_
for ce_
ou ch_
qui ck
sto ck_
ac cor
respe ct
perfe ct_
conne ction_
Do ctor
woo d-
en d._
pe d._
woul d._
ma d_
shoul der_
hy drau
con du
stu dy_
Jan e,_
don e,_
quar e,_
therefor e,_
u e._
ashor e_
di e_
li e_
pi e_
st e_
ben ea
answer ed,_
satisfi ed._
ber ed_
i ed_
order ed_
peep ed_
th ed_
mer ely_
spl en
“Th en,_
B en_
evid ently_
em er
lat er_
m er_
m ere_
off ered_
ch es,_
id es,_
“Y es._
nam es_
stat es_
sugg est
d est_
stre et,_
pock et._
when ever_
in flu
hu ge_
stru gg
be gged_
En glan
lo gs_
“T hat’s_
red- headed_
L i
der i
commun ic
beh in
bl in
c in
dr in
mach ine_
mean ing_
tain ing_
w ing_
exceed ingly_
go in’_
n in’_
anx ious_
S ister_
f it_
— it_
ed iti
se ized_
ban k
sna ke-
sha ke_
to ke_
as king_
brea king_
trac ks_
Scot land_
padd le_
craw led_
f li
p li
re li
pub lic
ti ll,_
be ll-
sme ll_
F lor
deep ly_
di ly_
easi ly_
p ly_
quiet ly_
Christ m
te m
’ m
su m_
wigwa m_
ti me.”_
im me_
fur n
Sherbur n_
“O ne_
din ner_
g ni
s nu
ch o
mon o
t ol
d om_
i on,_
mo on_
suspici on_
wr ong
Bri ony_
p oo
sm oo
C or
flo or
b oth
an other._
thor ough
f ound,_
s ound,_
gr ound._
h ow,_
sh owing_
pa p
Pa p_
li p_
ri p_
tra p_
p per
re por
fre qu
B r
bar re
sc re
cor rid
lightning- ro
bed room_
ation s,_
wood s,_
year s,_
ing s._
word s._
en s_
heel s_
glimp se_
dres sed,_
him self._
mi ser
Engli sh_
pre ssi
breakfa st,_
fir st._
up- stairs_
cu stom
acquain t
plan t
u t,_
c t._
lef t._
no t._
t ted_
Su ther
fa ther._
star ting_
ac tion_
co tt
ang u
b ul
col um
t um
m un
S us
b ust_
ner v
tra ve
ali ve,_
Ha ve_
se ven
ca ver
go ver
pe w
Ne w_
Sunda y-
el y._
da y.”_
dut y_
gra y_
myster y_
z y_
e ye
pa ying_
I —
es ’_
friend ’s_
me !_
you !”_
London ,_
mp ,_
our ,_
right ,”_
sir ,”_
“Yes ,”_
for ._
long ._
sure ._
then ._
woman ._
Jim .”_
en .”_
is .”_
self .”_
’ .”_
, 00
said :_
all ;_
to ;_
d ?_
me ?_
R A
“‘ And_
A B
S C
N E
“ F
L L
“ Mr._
“ Project_
P RO
’ S_
I X
“‘ Yes,_
‘ You_
laugh _
v _
o a
se a
“S a
comfort able,_
r ac
j ack
p age_
he al
individu al_
t al_
natur ally_
- and-
t ang
c ar_
doll ar_
afe ard_
tow ard_
cle aring_
he ars_
we ary_
d ate_
Found ation,_
examin ation_
s ation_
sc attered_
y aw
we b
hus ban
a be
cham ber_
possi ble
sti c
suc ce
an ce,_
convin ced_
prea ch
arm chair_
re ci
ac cid
qui ck,_
che ck_
a- com
expe ct_
coul d,_
en d,_
islan d,_
ne d,_
dea d._
woo d_
Su dd
sa dd
sha de_
sli de_
wi de_
consi der_
yon der_
i di
hun dre
bir ds_
intro du
po e
shri e
lin e,_
piec e,_
d e._
com e;_
gain ed_
interest ed_
lin ed_
mix ed_
mov ed_
pl ed_
w ed_
handkerchi ef_
fi eld_
T ell_
p end_
sp end_
fast ened_
p ent
sp ent_
v ent_
ev ents_
asle ep_
S er
tol er
nigg er._
Toll er_
strang er_
P erhaps_
“C ertain
h es
lin es_
trac es_
n ess,_
busin ess._
inch est
sugg esti
Y et_
p et_
sle ev
“O f_
cof fe
li fe,_
li fe._
de fin
per form
ei g
olo g
stag g
www.gutenberg.or g
du g_
il ge
bi gg
bri ght
si ght,_
re gi
reco gni
bus h
wha h_
p han
W hat’s_
s hel
er i
prom i
ma id
Bes ides,_
ev il_
an im
om in
p in
W inchest
even ing,_
r ing,_
s ing,_
en ing_
know ing_
open ing_
our ing_
reason ing_
compan ion
sin ister_
vis it_
p iti
al ity_
dar k
tal k
wee k
wor k
boo k,_
drun k,_
ban k._
strea k_
trademar k_
blan ke
as ked,_
spo ken_
wor ks,_
eBoo ks_
in ks_
oo ky_
Ad l
gir l,_
disp la
cand le
b le,_
c le,_
troub le._
sett led_
rea li
hydrau lic_
wa ll._
du ll_
’ long_
en ly,_
heavi ly_
kind ly_
war m
proble m_
strea m_
Ger man_
asha med_
point ment_
ca mp_
fun n
mour n
ster n_
Tur ner_
retur ning_
curi o
dev o
Tw o_
c o_
B ob
C ob
“H old_
comm on
afterno on,_
compani on._
reck on._
spo on_
cor one
g one
al one._
col onel_
N ones
questi oning_
G ood-
eB ook_
ct or._
b ought_
ann oun
l oun
col our_
hon our_
str ous_
fl ow
wid ow
r ow,_
bel ow._
wind ow._
all ow_
thr own_
se par
hel ped_
photogra ph_
pur pose_
cla pped_
perha ps,_
li ps_
re qu
er r
qui re
bu rea
“P reci
ter ri
bu ried_
ac ro
hur ry_
y s
head s,_
word s,_
t s;_
rap sca
immen se_
them sel
Engli sh
Hor sha
vi si
out side,_
pres sing_
— so_
Wat son._
po st
si st
in stead_
po sted_
twi sted_
an t,_
hear t._
’ t.”_
Roylot t_
assistan t_
attemp t_
wish t_
S te
no te
comple te_
gh ted_
in tell
al ter
bet ter
charac ter_
ut tered_
dea th,_
streng th_
au thor
al though_
e ting_
S toke_
ing ton_
boo ts_
emp ty_
E u
Nones u
burea u
t uck_
contin ue_
tr un
it ure_
sec ure_
thr ust_
bea ut
pa v
ha ve,_
obser ve_
recei ve_
arri ved_
pre vent_
li ving_
Opensha w_
cha w_
re ward_
“E x
b y
bod y,_
ll y,_
read y._
l y;_
Harve y_
f y_
hand y_
d ying_
pu zz
ther ’_
she ’s_
didn ’t._
. ’”_
on !_
Buck ,_
arm ,_
ef ,_
hour ,_
idea ,_
om ,_
one -
asleep ._
idea ._
over ._
own ._
paper ._
she ._
d .’_
ent .”_
room .”_
sir .”_
that .”_
1 5
Jim ;_
’t ;_
ce ?”_
se ?”_
so ?”_
to ?”_
D A
L A
R AN
AN D_
D E
IN G_
W I
I I._
“‘ No,_
I S_
A T_
“‘ The_
7 _
ri _
l ab
prob able_
st able_
toler able_
vill age,_
ti al_
g all
est am
Indi an_
br and
arr ang
we ap
B ar
appe ar_
swe ar_
te ar_
we ar_
y ard,_
gu ard_
aw are_
sh are_
v ari
cl as
Christm as_
tre ated_
narr ati
A b
ha b
hus band
rub bed_
le ber
b bing_
lim bs_
es ca
medi cal_
es cap
pro ce
offi ce,_
on ce._
practi ce_
inno cent_
bran ches_
bu ck
ro ck
ti ck
de cl
ac compli
au ction_
Go d
buil d
con d
confi d
di d,_
lan d,_
le d._
te d;_
on d_
Mon day_
en ded_
provi ded_
fe der
provi ding_
- down_
ge e
ke e
in e,_
z e,_
minut e._
mor e;_
Se e_
satisfi ed,_
at ed._
dd ed_
satisfi ed_
star ed_
suggest ed_
tain ed_
ud ed_
grat eful_
ch el
ke en_
influ ence_
fright ened_
incid ent_
frequ ently_
Wat er
Ston er_
own er_
fing ers_
Stat es,_
c es,_
v es.”_
ladi es_
ge ese_
T estam
me et
pock et,_
qui et,_
How ever,_
“N ever_
af f
af fe
in fer
stu ff_
su ffi
camp- fire_
un fortunate_
ur g_
Geor ge
dra gged_
bri ght,_
fi gu
S h
“S h
o h,_
a h_
hea h_
as hes_
bus hes_
some how_
B i
V i
anx i
fa i
ser i
we i
or ig
stra ight
B ill_
Ch in
cab in,_
cha in,_
coff in,_
ga in_
rema in_
eng ine
expla ined_
go ing,_
n ing,_
y ing,_
sitt ing-
think ing._
noth ing;_
boom ing_
wind ing_
wonder ing_
sw inging_
grac ious_
des ir
pa ir
S ir_
wa ist
j ist_
“W it
cred it_
s ite_
m itted_
furn iture_
— it’s_
Wil k
ac k,_
thin k._
remar k_
Du ke_
mista ke_
boo ks,_
loo ky_
foo l
sa l
ne l_
se l_
comp la
g la
ratt le
ho le,_
possib le,_
bund le_
Huck leber
cur led_
sa les
troub les_
ob li
fami liar_
so lic
bi ll
wa ll
wa ll,_
ca lling_
bi lls_
wa lls_
dead ly_
gener ly_
n ly_
mada m
strea m,_
fir m_
extre me_
advertise ment_
ly n
sig n
su n_
s nat
s now_
S o,_
“N o_
lones om
lones ome_
Cor on
Sim on,_
iti on,_
reck on,_
afterno on_
fashi on_
al one,_
reas ons_
H oo
S op
gl or
m other
pr ou
r ough
s ounds_
col oured_
m ous_
ab out,_
sl ow,_
shad ow_
b owed_
thr owed_
fell ows_
acce p
ti p
pre par
es pe
pro pri
cre pt_
se qu
re quire
’ r_
i re
quar re
G ri
sh ru
hur ry,_
mar ry_
dollar s,_
dres s,_
letter s,_
ar s._
s s._
shoulder s._
thi s._
’ s.”_
Bogg s_
gun s_
ver s_
“A s_
conver sation_
in scri
ca se._
cour se._
ar se_
no se_
ou se_
ri se_
kis sed_
your self,_
trou ser
vani shed_
Mis sou
re spon
lo ss_
lea st
de stro
mon strous_
con sul
shir t,_
carpe t-
poin t._
cour t_
mean t_
under ta
cur tain_
de te
coun ted_
pain ted_
tru th,_
dea th._
Bo th_
fea ther_
ac ting_
poin ting_
no tion_
solu tion_
exac tly_
accoun ts_
le ts_
tr uck_
d um
opi um_
p un
pl un
Arth ur
B ur
feat ure
pleas ure_
pict ures_
Cob urg_
m us
stat us_
u v_
li ve
ali ve_
lo ved_
ser ved_
le vel_
li ves_
Pro vi
pre vi
tri vi
Ha ving_
any wher
— which_
Sa x
ne x
a x_
wi xt_
E y
Sa y,_
Sall y,_
b y._
stor y._
Hatherle y_
Majest y_
orner y_
‘ you_
bod y’s_
es —
too —
We ’ll_
at ’s_
ker ’s_
don ’t,_
h !_
it !_
now !”_
** *
ear ,_
high ,_
luck ,_
mean ,_
pan ,_
through ,_
es ,”_
on ,”_
that ,”_
A -
der -
ill -
ow -
two -
water -
2 ._
4 ._
5 ._
Huck ._
London ._
an ._
say ._
shoulder ._
year ._
“No ._
et .”_
head .”_
n .”_
night .”_
th .”_
too .”_
www.gutenberg.org /
1 1
2 2
1.E. 8
18 8
er :_
ness :_
this :_
way :_
be ;_
en ;_
he ;_
n ;_
see ;_
us ;_
water ;_
’ ;_
“No ;_
’ ?_
ch ?”_
ed ?”_
mean ?”_
st ?”_
W AR
EN BER
U C
H E
J EC
UT ENBER
s’ I;_
II I_
“ I’ve_
PRO JEC
O L
WAR RAN
E S
“ St
PROJEC T_
G UTENBER
& _
*** _
4 _
CH _
IN _
• _
O a
clo a
stom a
Flor a_
J abe
miser able_
t ack
cr ack_
cont act_
b ad
bro ad
advant age_
man age_
roy al
Roy al_
ation al_
ener al_
it al_
me al_
tu al_
occasion ally_
usu ally_
wand am_
H an
Sus an_
appear ance_
import ance_
f ancy_
gr and_
‘ and_
or ange_
l angu
app ar
cig ar
y ar
de ar,_
t ar_
disappe ared_
st ars_
contr ary,_
ple ase_
r ase_
d ashed_
bre ast_
bo at,_
co at._
fl at_
form at_
r at_
se at_
tre at_
est ate,_
f ate_
d ated_
imp ati
Found ation
explan ation_
j aw
de b
Windi bank_
um ber
mes by_
fi c
inno c
Ameri can_
Dun can_
Las car_
noti ce
poli ce,_
chan ce;_
On ce_
distan ce_
er ce_
circumstan ces_
hi ch_
That cher_
wit ches_
de ci
suffi ci
o’clo ck,_
fro ck-
sa ck_
kno cked_
tobac co_
in cre
dire cti
o d
bir d,_
col d,_
rea d,_
be d-
wor d._
worl d._
di d.”_
be d;_
Go d_
yon d_
yester day_
me dd
Lestra de,_
shoul der,_
lo dge
splen did_
te dly_
nee dn’t_
oun dre
secon ds_
er e
p e,_
pip e,_
u e,_
har e-
min e._
ther e.”_
ther e?”_
lan e_
or e_
stor e_
intell ec
coll ection_
fre ed
listen ed._
al ed_
de ed_
discover ed_
hop ed_
lean ed_
load ed_
nam ed_
present ed_
tur ed_
B ee
squ ee
stat em
pav ement_
plac ement_
stat ement_
k en,_
op en._
p en_
tt en_
G eneral_
ke enly_
sil ent,_
d ent_
id enti
Sawy er
ch er
Coron er:_
volunte ers_
cloth es,_
kne es,_
Stat es._
c es._
Do es_
ag es_
besid es_
gi es_
sid es_
busin ess
succ ess
darkn ess._
gu ess_
w est_
soci et
wher ever_
who ever_
step father_
de fe
ef fe
sa fe
kni fe_
per for
In formation_
pain ful_
wonder ful_
care fully_
Ro g
jud g
ra g
www.gutenberg.or g._
fo g_
ra g_
ra ge
d ged_
hu gged_
shru gged_
ni gh_
i ght,_
ma gi
a- gwyne_
A h,_
sa h,_
da h_
S ha
— he_
P hel
P help
Sop hi
“W hich_
c him
“W ho
ra i
R ich
ma id,_
ser ies_
we ight_
ra il
dev il_
ta il_
B ilge
cla im
orig in
r in
ra in,_
r ing
sitt ing-room_
s ing._
ash ing_
dd ing_
listen ing_
tw ink
Th inks_
y in’_
a ir._
ha ir._
po is
ex ist
b ite_
in iti
ent ity_
con jec
sub ject_
ma jest
an k
boo k
loo k,_
tal k,_
tal k._
trac k._
trademar k._
sa ke,_
du ke._
ban ker_
wor ks._
cha l
par l
te l
disc la
is land
O ld_
mi le,_
litt le._
gent le_
t le_
smi led_
cand les,_
b less_
on line_
ow ling_
sma ll
te ll._
bri lli
wi lling_
te lls_
ca lly_
foo ls_
fami ly,_
m ly_
thorough ly_
ure ly_
cli m
m m
de m_
sa me._
la me_
war med_
Gri mesby_
a mi
ear n_
fu n_
sig nal_
ear ne
jour ne
s nea
Tur ner._
Hor ner_
“Wit ness:_
mid night_
bur ning_
s nor
st n’t_
Wh o
R ob
pro of_
spo on,_
t on,_
l one
usi ons_
B oo
P oo
ch oo
“G ood-
sc or
“N oth
An other_
sc oundre
gr ounds_
r oun’_
fav our_
endeav oured_
c ous
nerv ous_
previ ous_
foll ow
b ow_
r owed_
g own,_
sh ows_
gi p
li p
S pa
S pe
com pe
re pe
envelo pe_
de pend_
Ser pent
Cop per_
ra ph
whoo ping_
pur po
ap pointment_
tra ps_
re put
S quare,_
hor r
sp r
whi r
sc rab
parag raph
ph rase_
G re
shi re_
c rea
w reck
Missou ri_
sp ring_
ai ro
to-mor row_
bor rowed_
d ru
house s,_
paper s,_
uck s,_
dollar s._
le s._
se s._
thing s;_
kis s_
or s_
shoulder s_
stand s_
uncle s_
your s_
goo se,_
licen se,_
el se._
pre serve_
fre sh
pas si
web site_
snake- skin_
di spos
A ssi
fir st-
breakfa st._
la st._
Mo st_
wor st_
under stand
ju sti
in stin
mu stn’t_
grind stone_
per su
re sult_
Coun t
Whi t
raf t
sho t
foo t,_
fron t,_
ke t._
ber t_
servan t_
“A t_
man tel
quar ters_
clo th_
mon th_
tee th_
“ the_
wea ther,_
every thing,_
sympa thy_
men ti
S till,_
drif ting_
shou ting_
inten tion_
swif tly_
par ts_
par ty_
comp u
it u
pl u
vag ue_
Spa ul
v ul
at ur
advent ure
feat ures_
c ut
cl ut
re ve
cei ve_
sol ve_
sol ved_
gra vel
hea ven
dri ven_
ele ven_
Har vey
ser vi
dri ving_
re vol
pow w
vie w,_
S wandam_
any way
some what_
bet wixt_
Ma y
g y
pa y
cop y,_
el y,_
read y,_
r y;_
Ma y_
alle y_
bus y_
dr y_
jo y_
cr ying_
pl ying_
be yond_
de y’s_
lad y’s_
Jabe z_
ce —
and —”_
k ’
“ ’
en ’_
more ’n_
out ’n_
husband ’s_
king ’s_
s ’s_
Gutenberg ”_
Ha !_
o !_
t !_
um !_
you !_
’t !_
“Ha !_
“What !_
him !”_
! )_
0 ,_
cab ,_
f ,_
half ,_
ed ,”_
se ,”_
then ,”_
’t ,”_
“No ,”_
lean -
sh -
side -
th -
ther -
hair -b
low -down_
9 ._
IV ._
co ._
form ._
interest ._
law ._
om ._
our ._
through ._
’em ._
e .’_
you .’_
a .”_
able .”_
ar .”_
be .”_
right .”_
ther .”_
us .”_
“No .”_
100 0_
Huck ;_
life ;_
man ;_
off ;_
sir ;_
town ;_
” ;_
all ?”_
matter ?”_
time ?”_
‘ C
S E
“ For_
V I._
F IN
M IT
“‘ It_
“ Just_
K LE
I M
FIN N
B O
TI ON
F OR_
ADVENTU RE
ADVENTURE S_
H UC
“‘ Well,_
T Y_
3 _
AN _
M _
] _
D a
lo a
P a_
ic a_
se a_
b ab
sl ab
lic able_
P ack
f ad
P add
vill age._
aver age_
st age_
C airo
T ake_
“T ake_
Roy al
f al
i al_
leg al_
person al_
actu ally_
k an
mo an
f anc
acquaint ance_
Engl and
x ander_
ys ander_
ch anging_
ignor ant_
g ap
e ar_
Rich ard_
h arm
e ars_
necess ary_
gre as
me as
fl ash_
tre at
flo at_
’ at_
delic ate_
be ats_
S atur
distur b_
o be
May be_
li ber
tim ber_
rub bing_
ha bit
ati c_
usi c_
ni ce
sin ce,_
poli ce-
pri ce_
for ced_
des cen
That ch
ba chel
rea ching_
fan ci
chi ck
wi ck
ne ck,_
clo ck_
cir cle_
un common_
condu ct_
prote ct_
conne cted_
dire ctly_
cal cul
crow d,_
har d,_
kin d,_
li d,_
ma d,_
wor d,_
coul d._
ste d._
war d._
goo d;_
lou d_
prou d_
ti de_
crow ded_
drown ded_
fol ded_
sol di
stu died_
accor ding_
buil ding_
sli ding_
coul dn
hundre ds_
metho ds_
her e
rat e,_
stor e,_
Sax e-
thre e-
piec e._
her e?”_
g ed
enter ed,_
happen ed,_
kill ed,_
lock ed,_
lock ed._
scar ed._
ed ed_
land ed_
own ed_
pac ed_
saw ed_
uck ed_
vey ed_
oo ee
gri ef_
shov el
ke en
v en,_
wh en,_
fall en_
gre en_
sil ence,_
refer ence_
cli ent._
swe ep
Ke ep_
B er
full er
j er
oll er
Ston er,_
k er,_
y er,_
dang er._
easi er_
keep er_
low er_
loaf ers_
besid es,_
on es._
tim es._
Holm es;_
se es_
Count ess_
ch est_
great est_
high est_
hon est_
li est_
n est_
B et
propri et
swe et
jack et_
n et_
w et_
“L et_
li eve_
“H e’s_
oo f
af fair_
step father,_
wi fe,_
sa fe._
cof fee_
pre fer_
pu ff
u ff
ski ff,_
Granger for
swi ft_
bride g
ener g
le g,_
ju g_
An ge
tra ge
ma ged_
lar ger_
mi ght,_
or gies_
for go
- goo
ho gs_
cler gy
sa h
p ha
left- hand_
C har
“W hat,_
“W here_
us hing_
a- hol
neighbour hoo
H i
character i
disgu i
vo ic
Amer ica_
S id,_
as ide_
— if_
gu il
sa il
sa iling_
Rob in
reck in
ag’ in,_
jo ined_
fr ing
t ing
com ing,_
writ ing,_
t ing-
l ing._
morn ing.”_
fl ing_
laugh ing_
mov ing_
lodg ings_
wr ink
pla inly_
beg ins_
bra ins_
be in’_
mill ion_
Cla ir,_
“ is_
ra ising_
ag it
hes it
b it,_
wa it,_
exc ited_
author ities_
spir its_
C ity_
e jac
sub jec
Oa k
aw k
Star k_
e k_
res k_
Ar kan
smo ke
li ke,_
pac ked_
sna kes,_
blan ket_
lin ks_
than ks_
du l
ti l
’ l
Ange l_
sou l_
e la
s lan
E le
Rucast le,_
chi le,_
p le,_
pi le,_
doub le-
midd le-
Whi le_
ang le_
chi le_
need le_
start led_
tang led_
ca lic
b’ lieve_
ratt ling_
se ll
sma ll,_
ta ll,_
wi ll._
be ll_
u ll_
fi lled_
ta lli
pu lling_
t ly,_
f ly_
gent ly_
me ly_
E m
drea m
’ m,_
bla med_
gentle men_
pre mi
for mid
s mile_
com missi
re move_
la mp,_
Bur n
w n
lanter n._
A n_
Fin n_
eig n_
Whit ne
under nea
concer ned_
Har ney_
jour ney_
to- night,_
to- night._
to- night_
un ning_
“O nly_
— not_
idi o
“G o
G o_
calic o_
p ol
P oll
S oller
ap olog
d om
r om
t om
R ome
cott on
so on
compani on,_
r on_
st one,_
“N one_
questi ons,_
questi ons_
s oo
sc oo
“G oo
pr oof
“L ook_
ventilat or_
L oth
sl ouch_
W ould_
C our
danger ous_
ab out._
bl ow,_
l ow,_
c ow_
poww ow_
bl owed_
thr ows_
am p
la p,_
shi p._
princi pal_
sus pe
des per
tem per
p pi
sup po
op port
’ pose_
im possible_
re present
ex pression_
exce pti
in qui
re quir
w ra
A- rab
ti re_
occur red._
refer red_
reckin ri
d ried_
cont ro
to-mor row
d ruther_
sor ry,_
wor ry_
sen s
tran s
case s,_
hour s,_
night s,_
room s,_
cros s-
addres s._
night s._
other s._
hand s.”_
t s.”_
ber s_
len s_
own s_
paragraph s_
pen s_
Sunday- school_
expen se_
o se_
p se_
wi se_
cus sed_
your sel
es sen
Go sh
di sh
wa sh
wa sh_
furni shed_
Oak shot
gip si
cus sing,_
clo sing_
mis sing_
Wil son,_
Shepherd sons_
corre spon
pre ss_
breakfa st-
bur st_
li st_
po st_
wri st_
’ stead_
in stru
con sult_
as sure_
though t
fac t,_
lef t,_
star t,_
no t.”_
buil t_
car t_
hi t_
n t_
suppor t_
fan ta
cap tain_
me tal_
comple te
whi te,_
tin ted_
trac ted_
doub tedly_
lat ter_
shut ters_
dea th
tru th._
benea th_
tru th_
nu ther._
far ther_
ga ther_
lea ther_
u ther_
— there_
some thing,_
hear ti
shoo ting_
shor tly_
tip to
pro tr
I ts_
c ts_
effor ts_
lo ts_
sor ts_
difficul ty_
fra u
w u
Leag ue_
cl ue_
tong ue_
val ue_
ejac ul
sw um_
th umb_
opport un
t un
th under_
ed- up_
j ur
creat ure_
Advent ures_
circ us_
ref used_
n ut
y uther_
ca ve_
ho ve_
ha ven
cle ver_
gi ving_
fle w_
’t was_
— well,_
“ what_
any where_
T wi
An y
de y
jo y
sk y
Mar y,_
cr y,_
on y,_
full y._
r y._
tr y._
b y;_
brand y_
s y_
’ y_
fl ying_
pla ying_
stud ying_
bo ys,_
la ys_
L ysander_
Assi z
ga zed_
ga zing_
—— —_
s —and_
” —and_
—— ———_
p ’_
k ’n_
fuller ’s-
duke ’s_
men ’s_
pap ’s_
thing ’s_
wouldn ’t._
on ’y_
out !”_
3 ,_
can ,_
form ,_
gang ,_
roof ,_
un ,_
er ,”_
one ,”_
ow ,”_
see ,”_
so ,”_
four -
it -
re -
sun -
that -
umber -
window -
IX ._
V ._
ago ._
ca ._
gun ._
men ._
of ._
es .’_
y .’_
ago .”_
ment .”_
myself .”_
of .”_
tell .”_
then .”_
well .”_
1.E. 1_
1 2
1.F. 3,_
1.E. 9._
e :_
say :_
No ;_
al ;_
ct ;_
door ;_
house ;_
said ;_
then ;_
that ?_
s ?’_
Huck ?”_
Watson ?”_
now ?”_
what ?”_
RE A
S A
M AG
M AR
KLE BER
Saxe- Coburg_
C E
MIT ED_
R E_
GUTENBER G_
S H
s’ I,_
VI I._
s’ I._
V III._
TH IS_
HUC KLEBER
I LI
DA MAG
LI MITED_
TO M_
C ON
HUCKLEBER R
M R
AG RE
ADVENTU RE_
ST RI
“ Re
C T
“‘ That_
“‘ W
“‘ What_
AN Y_
HUCKLEBERR Y_
- _
00 _
AL _
LL _
TO _
grab _
hop _
i _
u _
co a
di a
comfort able._
cap able_
formid able_
on able_
valu able_
pal ace_
J ack_
p ack_
Ro ad._
ro ad._
H ad_
L ady_
t ag
vill ain
H ain’t_
that- air_
an al
we al
funer al_
scand al_
trivi al_
hair-b all_
ci ally_
equ ally_
initi als_
g am
j am
fr an
Dor an,_
compli ance_
d ance_
disappear ance_
v ance_
vac ancy_
gr and
h ang
s ank_
comp any
S ar
te ar
wh ar
fe ar,_
cle ar._
g ar_
gu ard
c ard_
b are_
fe ared_
be aring_
particul arly_
h arm._
co arse_
it ary_
Sil as
se as
H as_
le ase_
m assi
bo at
e at
f at
ne at
t at
bo at._
f at_
ne at_
thro at_
don ate._
it ate_
separ ate_
tim ate_
se ated_
cre ating_
explan ation._
investig ation_
situ ation_
narr ative_
v ative_
blu b
ro b_
distur ban
mem ber_
remem bered_
ha bit_
scrab ble_
visi ble_
over board_
ferry boat_
eye br
wn bro
indi c
re c
spe c
ras cal
practi cal_
indi cat
pre cau
poli ce
voi ce,_
chan ce._
Ali ce_
Twi ce_
assistan ce_
justi ce_
inno cent
Nonesu ch
wat ch,_
Whi ch_
lun ch_
hit ched_
mat ches_
an ci
spe ci
espe cially_
bri ck
co ck
spe ck
si ck,_
sti ck,_
thi ck,_
de ck_
kno ck_
ti ck_
tri ck_
wi cked_
pi cks_
cy clo
re comm
re covered_
corre ct_
dete ctive_
distin ctly_
do ctor,_
spe ctor_
oc cu
ac custom
secre cy_
bal d
en d
Go d!_
Englan d,_
behin d,_
chil d,_
ishe d,_
me d,_
stoo d,_
frien d._
islan d._
me d._
ol d._
clou d_
cor d_
mu d_
“Go d_
yester day,_
to- day_
Lestra de
ma de,_
a de_
hea ded,_
gli ded_
ten ded_
Provi dence_
Hol der
yon der,_
ol der_
spi ders_
tra des
fi dge
bu dge_
sun di
æ di
rea dily_
un doubtedly_
clou ds_
e du
u dy_
le e
shor e,_
ashor e._
dg e._
rop e._
desir e_
inquir e_
trac e_
H ea
ni ece_
W ed
inde ed
ch ed,_
continu ed,_
laugh ed,_
marri ed,_
R ed-
belong ed_
clean ed_
continu ed_
distribut ed_
el ed_
murder ed_
ther ed_
de ef_
“H ell
en em
se en._
D en_
happ en_
lin en_
ph en_
experi ence,_
wh ence_
t end_
t ened_
Sudd enly,_
mom ent
agreem ent._
differ ent._
ag ent_
inv ent_
suffici ent_
ev ents,_
cre ep
che er
eag er
op er
sup er
long er,_
bigg er_
coron er_
eag er_
great er_
i er_
off er_
pp er_
yall er_
fi erce_
holl ered_
prison ers_
for es
plac es,_
ti es,_
tre es,_
ch es._
y es._
tim es;_
not es_
piec es_
goodn ess,_
darkn ess_
g est
on est_
qu est_
sugg est_
t est_
fe et,_
pock ets_
she ets_
soci ety_
L ev
thi ev
for ever._
N ever_
D ey
mor e—
ther e—
nu ff
su ff
She ffi
com for
mis fortune_
re fu
care ful_
e g
fo g
an g_
run g_
tra ged
char ged_
emer ged_
lee ged_
si gh
mi ght
si ght._
fi ght_
ri ghts_
ra ging_
dis grac
C hi
some how._
D i
P i
fin i
S id
a id_
“ if_
ab il
b il
fa iled_
discla im
h in
ma in
ch in,_
ag’ in._
ag’ in_
coff in_
jo in_
ru in_
sh in_
stra in_
— in_
K ind
gu ine
exam ine_
incl ined_
perform ing,_
d ing-
cry ing._
even ing._
k ing.”_
draw ing_
examin ing_
head ing_
lead ing_
sing ing_
star ing_
wedd ing_
Padd ington_
w ink_
sp inning_
ll ion
us ion
opin ion,_
myster ious_
sk ir
squ ir
“H is_
prom ised_
spir it
su it
m it_
lim itation_
add iti
su its_
v itt
C ity._
G ive_
trademar k,_
wee k._
fol k_
lin k_
spo ke,_
o ke_
coo ked_
po ked_
smo ked_
underta ker_
tal king,_
stri king_
wal ks_
de l
fe l
schoo l,_
barre l_
de la
c lad_
c lay_
te le
sty le._
whi le._
ratt le_
sty le_
chuck led_
f led_
ob leeged_
bed- leg_
ho les_
se less_
peop le’s_
b li
stra li
app licable_
fami lies_
day light,_
cy lin
smi ling,_
chi ll
hi ll
ta ll
trave ll
ro ll_
compe lled_
rapsca llion
ca lls_
b lo
- looking_
Kind ly_
app ly_
friend ly_
i ly_
lone ly_
Ar m
fu m
la m
wigwa m,_
proble m._
screa m_
sli m_
stor m_
swi m_
a ma
perfor man
ch man_
Em me
lem me_
la med_
screa med_
pay ments_
sum mer_
di mly_
g n
Fin n,_
caver n_
solem n_
ther n_
Tur ner
cor ner,_
kind ness_
mag ni
war ning_
S o
er o
gh o
prom o
ro of_
b ol
s om_
st om_
“C ome_
t on
questi on,_
questi on._
essi on_
g one;_
L one_
sh one_
menti oned_
sp ong
wr ong,_
r oni
butt ons_
editi ons_
lli ons_
dr oo
h ood_
‘C ooee
c ook_
“L ooky_
sh op
ch op_
v or
visit or,_
visit or._
( or_
t or_
b other
t ough_
r ound
f ounded_
p oured_
endeav ouring_
i ous
nam ous_
sh out
st out_
b ow
“H ow
bl owing_
cyclo p
des p
qui p
shi p
whoo p,_
ca p_
cha p_
hea p_
S pan
ro pe
sha pe_
stoo ped_
de pen
ele phan
Ste phen_
ra pi
wood pile_
im pl
re placement_
un pleasant_
com plying_
cri pp
sli pper
im pressed_
Phel ps_
dro ps_
jum ps_
kee ps_
pi ps_
ti ps_
acce pt_
recei pt_
swe pt_
descri ption_
ke p’_
e quip
ter r
occu r_
disc re
th read_
B reckinri
bar red_
stir red_
bed room,_
Loth rop
hor ror_
c ross_
hur ry
ang ry_
hur rying_
bri s
al s,_
arm s,_
fraud s,_
hi s,_
in s,_
ment s,_
pocket s,_
yard s,_
ation s._
ow s._
room s._
th s._
way s._
wood s._
busines s.”_
an s_
brother s_
chair s_
ff s_
il s_
run s_
she s_
stain s_
wheel s_
ran sa
loo se,_
no se,_
advi se_
choo se_
fal se_
di sea
es sed_
fore seen_
“Preci sel
con sequ
thirty- seven_
fooli sh_
fini shed_
re sid
out side._
s sing_
curio sit
bri sk
Peter son,_
whi sp
Ro ss,_
to ssed_
bu st
ha st
wa ste_
re sted_
Bri stol
cu stom_
u str
Au strali
no stri
ab sur
as sur
sha t
faul t,_
poin t,_
a-hol t_
dir t_
effor t_
chee ta
cur tain
ob tain_
re tained_
f ted_
fain ted_
repor ted_
four teen_
six teen_
af ter._
Hun ter_
at ter_
bit ter_
four th_
toge ther
brea thing_
“ this_
t ti
expec ting_
wan ting_
mo tion_
re tired_
x ton_
boo ts,_
fac ts,_
resul ts_
though ts_
intellec tual_
Royal ty_
dir ty_
hear ty_
poo ty_
Roylot t’s_
le t’s_
tr uck
p ul
pl um
medi um_
pl umb_
l umber-
st ump_
A un
br ung_
sw ung_
c unning_
st up
Advent ure_
advent ures_
beca use,_
m usic_
concl usions_
disc uss_
d ust_
B ut,_
h ut_
li v
obser v
deri vative_
dri ve,_
acti ve_
bra ve_
obser ved._
tra vel_
E ven_
shi ver
so ver
sil ver_
con veyed_
a vo
da w
white washed_
a way;_
any way_
Merry weather,_
Merry weather_
je wel
every wher
some where_
pa wnbro
Ele xander_
Bri xton_
lad y
full y,_
sl y,_
l y,”_
countr y-
fort y-
mone y.”_
An y_
funn y_
sk y_
sleep y_
theor y_
cop ying_
cra z
la zy_
gri zz
cyclop ædi
so —
e —and_
po ’_
“You ’ll_
S ’pose_
Dey ’s_
Foundation ’s_
Watson ’s_
n ’s_
nigger ’s_
sister ’s_
uncle ’s_
widow ’s_
wife ’s_
warn ’t._
They ’ve_
bang !_
ent !_
gone !_
land !_
se !_
up !_
“No !_
e !’_
Holmes !”_
Jim !”_
d !”_
e !”_
me !”_
0 ,00
D ,_
William ,_
certain ,_
gun ,_
ic ,_
interest ,_
stair ,_
e ,’_
Doctor ,”_
h ,”_
man ,”_
all -
ash -
clean -
en -
fish -
g -
jewel -
k -
lodge -
rat -
ter -
ve -
goo -goo
D ._
No ._
am ._
ber ._
can ._
ear ._
hour ._
luck ._
per ._
rat ._
run ._
s’ ._
um ._
it .’_
se .’_
so .’_
Angel .”_
Tom .”_
ard .”_
at .”_
back .”_
door .”_
down .”_
enough .”_
ful .”_
house .”_
le .”_
life .”_
matter .”_
off .”_
or .”_
said .”_
see .”_
side .”_
thing .”_
to .”_
up .”_
2 0
d :_
ing :_
so :_
around ;_
do ;_
ent ;_
her ;_
minute ;_
no ;_
river ;_
th ;_
I ?_
mean ?_
time ?_
up ?_
then ?’_
Buck ?”_
Tom ?”_
he ?”_
is ?”_
night ?”_
to-night ?”_
too ?”_
ve ?”_
TH AT_
IN C
EN D_
AD E
SH ER
V E_
“ From_
S I
s— I_
C K_
MAR K_
E L
OL M
“‘ O
H OLM
“ R
T RA
EN SE_
S S_
NO T_
U T_
NE W
SA W
E X
SAW Y
Bob _
C _
EN _
FINN _
NEW _
C a
L a
p a_
sof a_
s— a_
est ab
reason able,_
ami able_
respect able_
un able_
consider ably_
ct ac
delic ac
st ac
tr ack
bl ack,_
Le ad
Ro ad,_
bro ad,_
ste ady_
vill ag
marri age._
bagg age_
de al
usu al._
conce al_
crimin al_
ent al_
enti al_
mor al_
origin al_
B all
V alley_
continu ally_
gener ally_
u ally_
st am
gr an
gro an
s an
sh an
p an_
import ance._
Fr ance_
s and
G ang
brilli ant_
Ball ar
be ar
sn ar
cell ar._
coll ar_
mil ar_
abo ard,_
g arm
f arm_
b ars_
o ars_
sal ary_
tre as
tex as_
“H as_
sm ashed_
contr ast_
re ast_
e at,_
steambo at,_
me at_
priv ate,_
immedi ate_
m ate_
pl ate_
br ated_
cre ated_
flo ated_
fortun ately_
immedi ately_
n ati
st ation
consider ation_
m ation_
rel ations_
cu b
thum b,_
carpet- bag
Windi bank
Windi bank,_
im be
may be,_
— because_
“ because_
no ble
Bi ble_
trem bling_
side board,_
No body_
neigh bor
li br
le brated_
tri bu
car bun
Fran c
edu c
spe c_
talli c_
ti cal_
re call_
dog- cart_
an ce
chan ce,_
noti ce,_
poli ce._
sin ce._
i ce_
instan ce_
oun ce_
produ ce_
an ced_
announ ced_
dedu ced_
in cent_
re cent_
chur ch,_
mat ch,_
spee ch,_
rea ch._
spee ch._
a ch_
approa ch_
hit ch_
it ch_
ket ch_
pit ch_
scrat ch_
spee ch_
approa ched_
di cher
pen ci
spe cial_
li ck
o’clo ck._
stru ck._
li ck_
sli ck_
co cked_
ha cked_
ransa cked_
sti cking_
ro cks_
arti cle
cir cle
un cle,_
frock- coat,_
be comes_
re cover
distin ct_
dedu cti
un ction_
vi ction_
Vi ctor
inspe ctor._
se cu
En cyclopædi
E d
expe d
hun d
ban d,_
for d,_
husban d,_
lightning-ro d,_
one d,_
secon d,_
we d,_
wil d,_
mu d-
ol d-
Englan d._
behin d._
hear d._
husban d._
ne d._
goo d.”_
di d;_
od d_
recor d_
sa d_
to- day,_
la dd
no dded_
Dun de
hi de
tra de_
drown ded,_
min ded_
gol den_
yon der
Hol der,_
mur der,_
Hol der._
Ry der_
do dged_
mo di
on dicher
hi ding_
ri ding_
lou dly_
rapi dly_
coul dn’_
a do
sel dom_
Grangerfor ds_
blin ds_
fiel ds_
frau ds_
min ds_
be e
grat e
li e
qu e
Lan e,_
believ e,_
car e,_
coffe e,_
not e,_
pi e,_
strang e,_
tre e,_
tru e,_
vill e,_
her e,”_
clu e._
ey e._
lin e._
p e._
shor e._
tru e._
z e._
plac e.”_
Jo e_
Mor e_
bor e_
du e_
for e_
gu e_
su e_
vill e_
L ea
fuller’s- earth_
un easy_
ri ed
“Inde ed!_
at ed,_
listen ed,_
“Inde ed,_
ch ed._
enter ed._
cri ed;_
accustom ed_
agre ed_
car ed_
consider ed_
includ ed_
li ed_
mp ed_
pleas ed_
pli ed_
ster ed_
trac ed_
ver ed_
for ef
H el
cru el
pan el_
whe el_
lat ely._
hom ely_
cer em
Lead en
fright en
tt en
t en,_
wom en,_
beat en_
consci ence_
f ence_
p ence_
viol ence_
b end_
c end_
straight ened_
ev ent
cli ent,_
em ent,_
em ent._
Testam ent_
evid ent_
viol ent_
appar ently_
incid ents_
she ep
pi er
“Th er
Adl er,_
ladd er,_
whisp er,_
fing er-
yall er-
long er._
st er._
Winchest er_
c er_
high er_
manag er_
near er_
H ere,_
Th ere,_
w ere,_
stagg ered_
H ere’s_
“Th ere’s_
mat eri
stat ero
pow ers_
minut es._
ti es._
Holm es.”_
y es;_
gipsi es_
p es_
somewher es_
succ ess._
en ess_
in ess_
hon est
requ est,_
deep est_
cigar et
stre et
she et,_
ll et_
me eting_
n ever
in ex
L e’s_
i f
sum f
lea f_
shel f_
’ f_
af fa
de fect_
sti ff
stu ff,_
con fir
twenty- five_
tri fling_
— for_
Ey ford_
af ford_
b’ fo’_
God fre
vi g
bi g,_
do g,_
le g._
hu g_
ra ge_
ag ged_
obli ged_
e gg
li gh
lo gi
loun ging_
a- goin’_
dressing- gown,_
mono gra
tele gra
con grat
re gre
as h,_
cheeta h_
Leaden hall_
tow head
- headed_
Red- headed_
O hi
p hi
rus hing_
house hol
one- horse_
some how
M i
S i
Victor i
bu i
su i
Lev i_
Sa id_
M ight_
ce il
qu il
va il
ve il,_
na iled_
ce iling_
ab ility_
B ill
M ill
“W ill_
g imme_
H in
prom in
cous in_
la in_
V incent_
foref ing
sh ing
build ing,_
t ing,_
think ing,_
din ing-room_
interest ing._
r ing._
even ing.”_
noth ing.”_
k ing;_
arm ing_
dar ing_
form ing_
hear ing_
sh ing_
sleep ing_
ud ing_
br inging_
Th ink_
ma inly_
cha ins_
l in’_
opin ion
a ir,_
p is
l it
wa it._
spir it_
defin ite_
lim ited_
su ited_
pol iti
cond ition_
dispos ition_
wr itt
comm itted_
f itted_
p ity_
s ity_
secur ity_
w it’s_
in ju
Sha k
spar k
mar k._
spar k_
’ kase_
mar ke
jo ke_
bac ked_
jer ked_
Ba ker,_
loo king,_
smo king_
Wil ks_
ban ks_
chee ks_
remar ks_
schoo l
scoundre l
hote l_
how l_
ou l_
penci l_
“B lame_
bui ld_
ho le
se le
cand le,_
pa le,_
b le._
possib le._
hand le_
op le_
sti le_
ce lebrated_
grizz led_
pi led_
speck led_
w led_
Ad ler_
mi les,_
estab li
fami li
ho li
vi li
comp lim
hare- lip_
mu ll
pi ll
spe ll
be ll,_
te ll,_
be ll._
fi ll_
ski ll_
Po lly_
A lo
Water lo
un locked_
be long_
land lor
nostri ls_
ear ly,_
fami ly._
like ly._
quiet ly._
ght ly_
new ly_
quick ly_
strong ly_
ter ly_
proble m
se m
Horsha m,_
pal m_
rum maged_
cab man_
sales man_
watch man_
gentle man’s_
ring master_
na me,”_
cri me._
cri me.”_
presu me?”_
camp- meet
extre mely_
gentle men
gentle men,_
astonish ment,_
gov ment,_
che mi
e mi
si milar_
sla mmed_
re moved_
da mp_
bor n,_
lanter n,_
solem n,_
colum n_
law n_
nuff n_
our n_
tor n_
war n_
van na
non namous_
un natural_
s ne
bur ned_
sig ned_
man ner
Hor ner,_
din ner,_
din ner._
man ner._
Ab ner_
Wed nes
pen ni
concer ning_
an no
’ n’t_
“D o
Waterlo o_
w oke_
disc ol
g old,_
cti on
p on
ti on
fashi on,_
so on,_
acti on._
pois on_
weap on_
P ondicher
n one,_
every one_
J ones_
suspici ons_
-b ook_
h ook_
p ool_
St op
p op
F or
it or
parl or_
an other
m other,_
m other._
gr ou
c ough
f oul_
C ould_
Y oun
s oun
gr ound
p ound
p ound_
w ound_
ar oun’_
F our
consci ous
gener ous_
ster ous_
ab ov
disc over_
F ow
all ow
f ow
sh ow._
sl ow._
’l owed_
g own_
will ows,_
“N o’
U p
corn- p
cri p
prom p
li p,_
pa p,_
cro p_
gras p_
gri p_
grou p_
shi p_
news paper_
com par
a part
stop ped._
gras ped_
e pi
re place_
per ple
exam ple,_
exam ple_
disap poin
de pos
ski pped_
ssi ppi
dro pping_
ta pping_
im pressi
li ps,_
cor pse_
ce pt_
prom pt_
uni qu
C re
figu re
ur re
A re_
ab reast_
ti red,_
Th ree_
deli ri
hor ri
hur ried
comp rom
sp rung_
I s
heaven s!”_
an s,_
dog s,_
or s,_
other s,_
shoulder s,_
step s,_
ter s,_
Orlean s._
al s._
arm s._
dres s._
ear s._
rat s._
window s._
year s._
and s_
gem s_
pan s_
robber s_
u sa
a- say
el se,_
plea se,_
surpri se._
el se.”_
cour se;_
aver se_
surpri sed._
cha sed_
recogni sed_
your self
glas ses_
fi shed_
Mis si
in si
re si
con sid
cus sing_
ri sing_
al so,_
hand some_
Shepherd son
Wil son
Jack son,_
pri son_
Jack son’s_
In spector_
posse ssed_
posse ssi
posse ssion_
Missi ssippi
hu st
in st
la st
ru st
brea st,_
be st._
bu st._
lo st._
se st_
down- stair
up stairs_
ma ster
fanta stic_
re sting_
ari sto
under stood_
di stre
down- stream,_
Brad street,_
ru sty_
’ s—
doub t
secre t
wal t
ar t,_
instan t,_
sho t,_
sor t,_
sho t._
though t._
poin t.”_
ye t.”_
Cour t_
con tain_
ob taining_
me tallic_
vo te_
shou ted,_
c ted._
star ted._
par ted_
shou ted_
til ted_
Hun ter
In ter
at ter
but ter
daugh ter
bet ter,_
charac ter,_
but ter_
en ter_
ut tering_
ear th
en th
leng th_
fur ther,_
any thing,_
any thing._
re ti
in timate_
day time_
c ting_
atten tion._
por tion_
satisfac tion_
al together_
tat too
fac tor
satisfac tor
fac tor_
at tracted_
attemp ts_
f ts_
raf ts_
servan ts_
ro tten_
c ture_
fif ty-
coun ty_
ye t—
ha u
ing u
vol u
event ually_
sh uck
t ucked_
“Sh ucks,_
congrat ul
g um
gr um
cl ump_
w un
c up_
n ur
nat ure
nat ure,_
inj ured_
S urre
g us
ysi us_
br ush_
enth usi
concl usion
concl usion_
f uss_
Ill ustr
un usual_
O ut_
P ut_
sol ute_
m uttered_
cra v
gra v
lea v
se v
a vail
ad vance_
Sa vanna
obser ve,_
gra ve_
massi ve_
positi ve_
sla ve_
ti ve_
le vel
lo vel
lo ver_
oursel ves,_
ner ves_
yoursel ves_
gra vey
sur vi
con viction_
ha w
vie w
a wa
s warm_
half- way_
je we
Burn well_
“ when_
s wore_
type writ
E x
perple x
Cop y
ber y
bo y
emplo y
’ y
Hatherle y,_
d y,_
hone y,_
ke y,_
sk y,_
stor y,_
“Sa y,_
r y-
McCarth y._
Sall y._
ar y._
everybod y._
lad y._
memor y._
sl y._
da y;_
l y?”_
De y_
Godfre y_
destro y_
ff y_
hair y_
robber y_
shin y_
ur y_
whisk y_
k’ yer_
f ying_
sta ying_
’ you_
ph ysi
Alo ysius_
la z
cu z_
si ze_
bla zing_
again —
now —
thing —
to —
’ —
it —and_
m ’
in ’._
do ’_
raf ’_
He ’d_
You ’d_
dey ’d_
hund ’d_
there ’d_
sha ’n’t_
f ’r_
They ’re_
You ’re_
en ’s_
girl ’s_
h ’s_
land ’s_
one ’s_
other ’s_
person ’s_
haven ’t_
en !_
now !_
sir !_
so !_
’ !_
‘Cooee !’_
ch !”_
7 ,_
AL ,_
CT ,_
Y ,_
bureau ,_
co ,_
foolish ,_
job ,_
plan ,_
public ,_
sh ,_
sun ,_
though ,_
wreck ,_
’em ,_
es ,’_
me ,’_
a ,”_
do ,”_
en ,”_
in ,”_
is ,”_
now ,”_
st ,”_
thing ,”_
co -
es -
gas -
hat -
high -
il -
night -
note -
o -
or -
out -
over -
saw -
top -
white -
x -
sun -b
um -b
1.E.8 ._
6 ._
7 ._
H ._
c ._
cat ._
il ._
no ._
soul ._
two ._
ven ._
0 .”_
I .”_
again .”_
along .”_
around .”_
as .”_
ber .”_
can .”_
case .”_
interest .”_
ke .”_
mum .”_
nigger .”_
om .”_
over .”_
own .”_
photograph .”_
possible .”_
think .”_
through .”_
8 0
0,00 0_
3 0_
9 0_
1.E. 1._
: 15
1.F. 3._
1.E. 7_
18 9
ation :_
along ;_
de ;_
dge ;_
ght ;_
myself ;_
night ;_
over ;_
use ;_
ve ;_
with ;_
be ?_
es ?_
for ?_
he ?_
hear ?_
man ?_
out ?_
se ?_
so ?_
t ?_
there ?_
y ?—
you ?—
y ?’_
Holmes ?”_
er ?”_
father ?”_
from ?”_
hear ?”_
in ?”_
off ?”_
photograph ?”_
they ?”_
this ?”_
with ?”_
LI AB
HE AD
DE AR
ST AR
STRI B
E BO
LI C
TI C
“‘ C
REA CH_
O CK_
RE CT,_
E DI
A D_
B E
M EN
LIC ENSE_
T ER
P ER_
DAMAG ES_
TI ES_
AGRE E_
L E_
’ Fri
G H
P H
“ Holmes,”_
SC II
V III_
I I_
V I_
VI I_
[ Illustr
— I’ll_
O K_
OR K_
“ Keep_
SHER L
X L
U LL_
“ Maybe_
“ Miss_
“ Mrs._
“‘ My_
W N
C O
P O
SHERL OCK_
EBO OK_
U R
B REACH_
DI RECT,_
A SCII
S SI
DI STRIB
TION S_
A T
WARRAN TIES_
ILI TY_
C T_
MEN T_
“‘ Then_
‘ There_
Q U
F ULL_
DISTRIB UT
“‘ Very_
“‘ Where_
“‘ Why,_
T Y,_
1.E.8 _
9 _
B _
IV _
IX _
NO _
V _
ou _
ugh _
é _
sk a
so a
Bohemi a,_
dat a._
Bohemi a_
Encyclopædi a_
Sophi a_
d a_
guine a_
ill a_
m a_
“ a_
j ab
prob abil
consider able,_
avail able_
it able_
ll able_
piti able_
read able_
b abo
br ace_
st ack_
str acted_
p ad
persu ade_
st aff
sn ag
carri age,_
marri age,_
b age_
f agged_
dom ain_
C air
C al
qu al
usu al,_
anim al_
centr al_
feder al_
ic al_
occasion al_
roy al_
tri al_
v al_
C ali
st all
b all_
fin ally,_
person ally_
H amp
V an
t an
Bohemi an_
Ke an_
Mor an_
ch anc
appear ance._
ab and
comm and_
Th ank_
dr ank_
d ant_
t any
Do an’_
C ap
W ar
cell ar
de ar
g ar
s ar
o ar,_
cig ar_
sc ar_
reg ard
reg ard_
y ard_
d are_
p are_
qu are_
sc are_
inv ari
sh aring_
al arm,_
al arm._
F arm_
ch arming_
b arr
G arri
be ars_
propriet ary_
ev as
g as_
ce ase_
b ased_
t ask_
c ast_
e ast_
H at
The at
swe at
the at
co at-
Ballar at_
Gre at_
N at_
dr at_
communic ate_
congratul ate_
pir ate_
r ate_
st ated_
pir ates_
rel ati
be ating_
e ating_
plant ation,_
investig ation._
situ ation._
[Illustr ation:_
fic ation_
observ ation_
n ational_
on ations_
bo ats_
se ats_
steambo ats_
b att
land au
L aw
O b
b b
com b
clim b_
clu b_
com b_
lim b_
we b_
rub bag
scri be_
descri bed_
distur bed_
rob bed_
blub ber
remem ber,_
Ro bert_
rab bit_
hum ble_
mum bling_
terri bly_
no body,_
no body._
some body’s_
e book_
som br
day break_
s bur
‘ but_
“ by_
( c
ri c
i c_
ri c_
oni ca
Ameri ca._
chemi cal_
lo cal_
physi cal_
practi cally_
S cand
Las car
Be cause_
for ce
pre ce
advi ce,_
disturban ce,_
en ce;_
introdu ce_
servi ce_
per ceive_
“Ex cell
as cen
inno cen
ec cent
Ex cept_
as certain
un certain_
offi ces_
t ch
lun ch,_
chur ch._
ri ch._
chur ch.”_
mu ch.”_
Fren ch_
Su ch_
bun ch_
lyn ch_
stret ch_
wit ch_
clut ched_
en ched_
ket ched_
snat ched_
ta ched_
ri cher_
Bee ches,_
in ches_
it ches_
approa ching_
stret ching_
magi ci
sui ci
fas cin
in cin
hi ck
pi ck
sto ck
cri ck,_
lo ck,_
ro ck._
Garri ck_
cri ck_
ro ck_
sho ck_
su cked_
pi cking_
ne cks_
ex cl
tobac co._
re collec
new com
in conveni
es cor
sa cri
corre ct,_
di ct_
spe ctac
dedu ction_
stri ctions_
defe ctive_
inspe ctor,_
le cture_
ac cur
en cy_
Spaul d
bloo d
bri d
goo d
oo d
’ d
Go d,_
ba d,_
hear d,_
neighbourhoo d,_
notice d,_
ye d,_
le d-
ha d._
lan d._
refun d._
she d._
understan d._
wor d.”_
da d_
lightning-ro d_
metho d_
accor dance_
yester day
Satur day_
drown de
itu de_
ri de_
clou ded_
confi dence_
el der
lad der
mo der
wil der
bor der_
hol der_
wid der_
or ders_
wi desp
le dg
Lo dge,_
Lo dge_
ri dge_
au di
bo di
ra di
ri di
Spaul ding_
ben ding_
en ding_
gli ding_
sen ding_
www.gutenberg.org/ donate._
afterwar ds._
car ds_
fin ds_
recor ds_
gra du
in dul
trage dy_
bar e
ben e
bre e
de e
dev e
hom e
ll e
ov e
pi e
re e
swe e
wher e
Com e,_
fre e,_
imagin e,_
lat e,_
let e,_
min e,_
om e,_
rop e,_
wid e,_
in e-
imagin e._
lan e._
lat e._
li e._
nam e._
not e._
t e._
don e.”_
imagin e.”_
mor e.”_
her e;_
plac e;_
plac e?_
com e?”_
can e_
fring e_
grac e_
ow e_
por e_
sombr e_
D ea
coll eag
S ec
er ec
her ed
wick ed
excit ed,_
fac ed,_
open ed,_
scar ed,_
whisper ed,_
happen ed._
inde ed._
kill ed._
laugh ed._
mov ed._
ad ed_
assur ed_
der ed_
draw ed_
ent ed_
id ed_
mur ed_
need ed_
om ed_
requir ed_
stain ed_
su ed_
succe ed_
tattoo ed_
wonder ed_
succe eded_
thi ef
sover eign_
Sheffi el
car ele
B ell,_
J em
ex em
har em
Lic en
M en
Wh en
am en
ing en
be en,_
childr en,_
p en,_
se en,_
sudd en,_
gard en._
dd en_
f ence
f ence,_
sent ence,_
differ ence._
comm ence_
h ence_
s ence_
refer ences_
ag ency_
att end_
att ened_
hard ened_
threat ened_
d ense_
lic ense_
innoc ent,_
mom ent,_
pati ent,_
pres ent,_
mom ent._
w ent._
ev ent_
g ent_
t ent_
promin ently_
mom ents_
statem ents_
ste ep_
F er
J er
T er
ex er
form er
Sawy er,_
answ er,_
engine er,_
keep er,_
prison er,_
strang er,_
Br er_
ang er_
disclaim er_
li er_
soon er_
us er_
H ere
f ere_
mm ered_
wand ered_
pe ering_
wand ering_
Rog ers,_
nigg ers,_
whisk ers_
prison er’s_
D es
oth es
succ es
com es,_
sid es,_
Assiz es._
cloth es._
kne es._
plac es._
ri es._
do es;_
box es_
carri es_
d es_
fe es_
g es_
m es_
sho es_
tri es_
vin es_
f ess
gu essed_
W est
inv est
di est_
g est_
keen est_
wid est_
Stre et.”_
bull et_
anxi ety_
R ev
gri ev
f ever,_
how ever._
so ever._
for ever_
her e—
Jan e’s_
de f
in f
out f
cal f_
old- fashi
wi fe._
con feder
inter fere_
sa fet
snu ff
stu ff
snu ff,_
sacri fi
speci fied_
Cali for
“ for_
Granger ford_
un foreseen_
in formed_
li ft_
beauti ful,_
mourn ful_
use ful_
ho g
ou g
u g
youn g
dru g,_
fo g,_
lo g,_
youn g,_
Youn g_
plu g_
sna g_
gi gan
or gan
ener ge
sur ge
youn ger_
lar gest_
mu gg
le gged_
tu gged_
be gging_
di gging_
dra gging_
wei gh
ei ght
fi ght
for git_
for give_
bur gl
di gn
o gra
un grateful_
ra gs_
Fer gus
“A h!_
us h,_
tten ham_
un happy_
w hat,_
a head,_
fore head_
“W here,_
P hi
T hi
neighbour hood_
ash- hop
S hor
no how._
“Qu i
“W i
gen ial_
gu ide_
cop ied_
den ied_
mpa ig
na il,_
ma il_
ve il_
ja iled_
spo iled_
b ility_
possib ility_
Van illa_
a im
n in
sk in
tra in
sk in,_
ste in,_
bra in-
ag in_
p in_
pa in_
s in_
wa in_
C incin
bl ind_
n ine
Serpent ine_
beh ine_
cha ined_
conf ined_
tra ined_
d ing
h ing
noth ing
bl ing,_
c ing,_
copy ing,_
land ing,_
str ing,_
yell ing,_
wedd ing-
Read ing._
ceil ing._
listen ing._
wedd ing._
y ing._
com ing;_
laugh ing;_
morn ing;_
anc ing_
creep ing_
discover ing_
el ing_
enter ing_
gap ing_
goo-goo ing_
itt ing_
lin ing_
lock ing_
remain ing_
shov ing_
ther ing_
j ings,_
n ings_
dist ingu
cab ins_
k in’_
A in’t_
consc ious_
Cla ir
F ir
v ir
st ir_
j is_
distingu ish_
fin ishe
on ished,_
mo ist
comm it
d it
defin it
ent it
ol it
sp it
t it
b it._
depos it_
solic it_
cap ital_
hered itary_
im itate_
br itches_
Qu ite_
Br iti
cond iti
f itten_
C ity,_
c ity_
necess ity_
“ it’s_
In j
Ma j
Ber k
Fran k
sa k
than k
drin k,_
eBoo k,_
in k,_
dar k._
eBoo k._
loo k._
dar k.”_
Mar k_
bar k_
cloa k_
hun k_
mil k_
par k_
ran k_
see k_
trun k_
wea k_
be kase_
smo ke,_
ta ke,_
smo ke-
li ke._
po ke_
sa ke_
cho ked_
drun ken_
mista ken_
sha ken_
Ba ker
Hoo ker_
stri kes_
spea king_
un known_
well- known_
chee ks,_
fol ks,_
bac ks_
brea ks_
B l
aw l
gen l
Poo l,_
foo l,_
hote l,_
gir l._
craw l_
hau l_
quarre l_
te l_
“P lain_
B lamed_
Suther land,_
“A las
disp laying_
ba ld_
dia le
g le
t le
midd le,_
ru le,_
sty le,_
sadd le-
ho le._
p le._
troub le;_
cripp le_
dd le_
fi le_
sa le_
tack le_
to le_
whist le_
dd led_
ff led_
foo led_
gg led_
puzz led_
ratt led_
tack led_
ab len
Fow ler_
Rucast les_
ab les_
cand les_
Un less_
am let’s_
E li
imp lic
so lid,_
f light,_
Emme line_
smi ling._
craw ling_
hand ling_
how ling_
pi ling_
ca ll
du ll,_
Wi ll_
chi ll_
hi ll_
si ll_
spe ll_
swe lled_
trave lled_
pa llet_
fa lling_
ye lling_
rapsca llions_
sa llow_
wi llow_
rea lly,_
deve lo
b lock_
b lot
sme lt_
fami ly
“Certain ly,_
complete ly._
d ly._
“Certain ly.”_
actu ly_
elder ly_
s ly_
safe ly_
simp ly_
A m
I m
da m
de m
ra m
stor m
whi m
fir m,_
mada m,_
proble m,_
sla m_
ste m_
telegra m_
da mag
clergy man_
cri me,_
sa me,_
ga me-
a me_
ga me_
presu me_
volu me_
le men
advertise ment._
astonish ment._
equip ment._
judg ment_
require ments_
deter mine_
screa ming_
com mission_
per mitted_
sub mitted_
bri mmed_
or mous_
sy mp
swa mp_
ca mpaig
Ter ms_
proble ms_
Soller mun
mur mured_
“ my_
Hor n
Joh n
retur n
law n,_
’ n,_
Fin n._
tur n._
in n_
mu n_
jour nal_
Cincin nati
sig nature_
bor ne_
a- near_
retur ned,_
plan ned_
chan nel_
cor ner
Tur ner,_
man ner,_
cor ner._
in ner_
part ner_
foolish ness_
wicked ness_
bon net_
Califor ni
mid night,_
ig ning_
lear ning_
stan nin’_
can not,_
lear nt_
is n’t_
may n’t_
might n’t_
C o
“Hell o,_
Cair o_
Rome o_
To o_
H ob
— oh,_
S ol
j ol
f old_
Sol om
glo om,_
commissi on
dish on
sun-b on
missi on,_
reas on,_
iti on._
positi on._
professi on._
reas on._
up on._
Solom on_
professi on_
wag on_
additi onal_
excepti onal_
D onations_
ey ond_
f ond_
col one
g one.”_
n one.”_
“N one.”_
G one_
— one_
butt oned_
moti oned_
old-fashi oned_
J ones,_
st ones_
s ong
ast onished,_
ti ons._
spo ons_
cerem ony,_
L oo
m oo
L ooky_
Pe ople_
sp or
po or,_
Po or_
corrid or_
“N or_
en ormous_
Th ose_
r ot_
p othes
b ou
sm ouch_
br oug
M oul
f ound
s ound._
r ounded_
res our
s our
col our,_
col our._
obvi ous._
hide ous_
H ouse_
seri ously_
ab out?”_
th out_
C ov
n ov
bl ow
y ow
bel ow,_
sh ow,_
br ow_
gr ow_
D owling_
bl ows_
sh o’_
clas p
har p
mum p
perha p
sle p
cli p_
ga p_
la p_
scoo p_
whi p_
whoo p_
des pair
re pair
half- past_
per pe
stop ped,_
gas ped._
esca ped_
car pen
inde pen
im per
sup per
Har per_
Al pha
a piece._
a piece_
droo ping_
stop ping_
common place_
crip pled_
sup ply_
pre po
small po
disap point
op pos
ex posed_
hy pothes
wra pped_
ri pping_
sli pping_
ste pping_
re present_
ex pressi
im prison
im pro
whoo ps_
conce pt_
exem pt_
inscri pti
bell- pu
s q
S quare_
C r
’ r
G ra
out rage
indi re
ti re
“G re
St rea
widesp read_
sp reading_
quar rel
th ri
inqui ries_
stir ring_
B ro
ap ron_
ch roni
ing- room,_
sitting- room,_
brideg room_
ter ror_
sor row
to-mor row,_
b ru
inter rup
ang ry,_
hur ry;_
Huckleber ry_
Pre s
carele s
ck s
cri s
Orlean s,_
board s,_
chair s,_
ctor s,_
friend s,_
g s,_
girl s,_
gun s,_
ha s,_
il s,_
king s,_
pres s,_
rag s,_
rapscallion s,_
seem s,_
th s,_
trouser s,_
your s,_
an s._
ct s._
ent s._
feature s._
habit s._
les s._
letter s._
paper s._
plan s._
ou s.”_
paper s.”_
s s.”_
busines s;_
er s;_
s s;_
addres s?”_
A-rab s_
Orlean s_
affair s_
belong s_
interest s_
ir s_
island s_
lead s_
nut s_
our s_
plan s_
shuck s_
tain s_
w s_
mes sa
— said_
’Fri sc
surpri se,_
Licen se._
el se;_
U se_
cha se_
recogni se_
re sear
es sed,_
rou sed_
her self._
it self._
your self.”_
clo sely_
“Preci sely_
re sem
pre ser
expen ses,_
purpo ses,_
Mo ses_
premi ses_
promi ses_
accompli sh
thre sh
Briti sh_
di sh_
furni sh_
clean- sha
respon si
sen si
mis sing._
cha sing_
po sing_
pas sion_
curio sity_
expen sive_
num sk
rattle snake_
what soever._
han som
hand some,_
Wil son._
par son_
ud son_
per sons_
ab sor
intro spe
di spo
Ro ss_
go ssi
to ssing_
re st
fa st,_
tru st,_
wri st,_
mo st._
breakfa st.”_
fir st.”_
rou st_
twi st_
con stab
up stairs,_
con stan
a- standing_
arre sted_
tru sted_
sy stem_
i ster
fa ster_
regi stered_
prepo sterous_
candle stick_
ab stracted_
mi stre
Brad street_
re strictions_
co sts_
fi sts_
co stum
as su
pre sum
A t
ge t
Oakshot t,_
corone t,_
hear t,_
hur t,_
importan t,_
le t,_
ne t,_
nex t,_
par t,_
se t,_
secre t,_
shor t,_
sof t,_
boo t-
servan t-
an t._
foo t._
hur t._
importan t._
lo t._
resul t._
star t._
subjec t._
wha t._
raf t;_
boo t_
constan t_
exac t_
fain t_
prin t_
smar t_
at tached_
de tail_
Ho tch
accep ted_
comple ted_
deser ted_
devo ted_
drif ted_
hear ted_
seven teen_
ex tended_
sof tened_
coun ter
Hun ter,_
let ter,_
Hun ter._
charac ter._
let ter._
al ter_
ar ter_
compu ter_
pew ter_
ut ter_
shat tered_
ut terly_
Au th
Sou th
Strea th
fai th
brea th,_
mou th,_
nor th,_
pa th,_
sou th,_
you th,_
fai th_
brea the_
Lea ther
ei ther,_
lea ther-
wea ther._
nu ther.”_
ga thered_
Sou thern_
every thing;_
soo thing_
mon ths._
’ ti
essen tial_
energe tic_
gigan tic_
du ties,_
royal ties_
some times,_
Con tin
attemp ting_
promo ting_
atten tion,_
men tion_
precau tion_
objec tions_
tribu tions_
finger- tips_
sub tle_
an tly_
lean- to_
“ to_
up- town_
en tr
in tr
— tramp
poe try_
fac ts._
Boo ts_
blanke ts_
doub ts_
pre tt
spo tted_
To ttenham_
conjec ture_
drif tw
dir ty,_
certain ty._
Jan u
incl u
sl u
“S u
lie u_
sh uck_
it ud
protr uding_
H udson_
H ugh_
ha ul
imp ul
va ul
F ull_
c um
cr um
medi um,_
Bal um_
J ump_
J un
a un
d un
inj un,_
str ung_
bl unt_
sun- up_
“O ur_
pict ure
nat ure._
advent ure_
p urely_
D uring_
c us_
re- use_
fl ush_
fl ushed_
p ushing_
all usion_
g ust_
t ut
“B ut,_
awl uz_
sa v
fi ve,_
gra ve,_
lea ve,_
narrati ve._
ha ve.”_
essi ve_
hi ve_
suggesti ve_
wa ve_
wa ved_
tra vel
A ven
revol ver_
Gra ves
oursel ves._
themsel ves_
pro vin
obser ving_
ca vor
con vul
je w
sha w
kne w,_
for war
re ward,_
back ward_
s warmed_
a way.”_
any way;_
least ways,_
“ we_
Bet ween_
— what_
four- wheel
a while_
scra wled_
cotton wood_
O x
comple x
wa x_
te xt_
law y
Harve y,_
M y,_
McCarth y,_
Poll y,_
Whitne y,_
an y,_
fanc y,_
hand y,_
heav y,_
hungr y,_
inquir y,_
journe y,_
k y,_
memor y,_
pl y,_
s y,_
“Wh y,”_
whisk y-
eas y._
gravel y._
uneas y._
wh y._
“Precisel y._
eas y.”_
Sall y;_
everybod y;_
apolog y_
beaut y_
den y_
greas y_
hungr y_
inquir y_
ph y_
se y_
An ybody_
